#version: 1.0
и </w>
а </w>
о </w>
е </w>
с т
p </w>
е н
о в
я </w>
р а
й </w>
р о
р е
в </w>
к о
п о
м </w>
а н
т </w>
н о
ь </w>
а л
b s
bs p</w>
n bsp</w>
е р
т о
е л
н ы
х </w>
р и
н а
ы </w>
и т
о б
у </w>
и л
г о</w>
о д
н а</w>
ен и
а т
н и
с к
е т
ов </w>
м о
ц и
к </w>
в о
п ро
и н
с </w>
з а
о т
н е
к а
с я</w>
ст в
р у
е т</w>
с л
т о</w>
с о
л и
а в
ю </w>
ан и
а р
д о
п ре
и з
с ко
н о</w>
е д
л ь
ч е
с и
о н
o n
g </w>
п ри
в ы
т и
s t
л а
ст и</w>
0 </w>
н е</w>
т а
о р
л е
р ов
ч то</w>
п о</w>
a </w>
ны х</w>
у д
м и
м и</w>
ел ь
м е
st r
on g</w>
str ong</w>
но й</w>
о с
м ен
ени я</w>
то р
t </w>
п е
ск и
ст о
ч а
к и</w>
б о
д е
н ов
ра з
но го</w>
г од
и с
2 0
с е
б ы
ал ь
по л
в а
к а</w>
е й</w>
ат ь</w>
м а
т е
ил </w>
e </w>
ци и</w>
пре д
по д
г о
г и
ени е</w>
ны е</w>
ж е</w>
л я</w>
ал </w>
a s
ны й</w>
л о
у р
п ра
д и
ж д
ен т
в и
об щ
h </w>
е м</w>
a r
ко н
с си
я т
ст ав
с а
п а
х од
5 </w>
бы л
ко м
из </w>
ет ся</w>
a n
1 </w>
к т
в ер
ра н
и х</w>
м у</w>
в е
н у
ре д
п у
3 </w>
з а</w>
ит ь</w>
20 1
2 </w>
г ра
к о</w>
h t
то м</w>
ны </w>
ст ь</w>
л я
ч и
as h</w>
д а</w>
d ash</w>
я в
ил и</w>
s </w>
е го</w>
а з
п ер
к у
r e
пра в
д ел
ско й</w>
ра с
со общ
м ер
д ля</w>
л ю
m dash</w>
ро сси
тор ы
ны м</w>
ит ель
у ч
ко торы
д а
ани я</w>
ш и
ско го</w>
нов о
ю т</w>
ств а</w>
к и
д </w>
п л
ов о
р </w>
ю щ
б уд
ра б
4 </w>
e r
ит ел
мо ж
р ы
м ы</w>
з и
ж и
ка к</w>
до л
ст ра
ств ен
f </w>
ал и</w>
е в
сл ед
б е
к ов</w>
с у
он </w>
год а</w>
но сти</w>
ст ан
ст и
т а</w>
во з
а к
л и</w>
м ет
г </w>
r i
п и
к ра
к е</w>
6 </w>
а ет</w>
8 </w>
l </w>
а я</w>
на я</w>
на ч
раб от
ен </w>
7 </w>
с ов
о т</w>
т ер
r u
k </w>
ств о</w>
g e
но е</w>
ht t
ени и</w>
В </w>
у ча
л </w>
ка з
мо ск
9 </w>
ро д
но м</w>
htt p</w>
h re
м а</w>
д у
hre f</w>
р и</w>
по р
д о</w>
ru </w>
м у
а м</w>
с во
ново сти</w>
м ат
р а</w>
i n
к у</w>
ски й</w>
ски х</w>
к ов
ме ст
с ь</w>
б ы</w>
ал а</w>
ин </w>
г у
э то</w>
та к
т ь</w>
в а</w>
г л
ь ся</w>
э то
ри а</w>
д ан
н </w>
ф ор
пе ре
ко то
с об
ф и
ст ро
м ы
е е</w>
п ров
b l
ал и
ани е</w>
в од
ком п
б и
с е</w>
е к
л ен
ци я</w>
с в
б р
м ил
т ся</w>
t ar
an k</w>
ст у
с я
в ре
o r
t i
д ер
ge t</w>
ск аз
er </w>
tar get</w>
т ре
bl ank</w>
ани и</w>
ре з
г а
с пе
д ен
d </w>
ни к</w>
я з
сл е</w>
так же</w>
ан </w>
ци он
ил ь
с а</w>
п ар
ль ко</w>
бо ль
сл ов
х о
т ы
q u
ра т
н я
з д
в се
ил а</w>
е в</w>
о на</w>
ну ю</w>
буд ет</w>
0 0</w>
ь ю</w>
б ли
ет а</w>
а д
но сть</w>
ит и
к ан
т и</w>
ат ел
ств и
l e</w>
дол ж
ст а
т е</w>
w w
за яв
qu o
ов е
гл ав
ц ент
ми ни
мил ли
по ль
год у</w>
ре ш
ти в
м я</w>
г ос
с ред
ко л
сл у
б ор
on </w>
с уд
ис ь</w>
ж ен
ч ел
ко й</w>
с ер
росси й
об ъ
э том</w>
ч ен
в ла
м е</w>
пред став
ч </w>
д ру
бо ле
ы х</w>
ht m
ро м</w>
б ле
ени ю</w>
ени й</w>
у ю</w>
htm l</w>
сто я
о м</w>
а й
ан д
ски е</w>
ру п
ющ и
ре с
ос ь</w>
в о</w>
поль з
ор г
чел ове
ни ц
у т</w>
ч ет
которы е</w>
п ри</w>
т ат
был </w>
р я
об ла
э к
ч ит
л ет
л а</w>
в ед
ят ь</w>
г да</w>
вре мя</w>
s p
ю тся</w>
щ и
не е</w>
пре зи
п ис
я бр
1 9
б </w>
ат ель
г ла
боле е</w>
г ов
ф </w>
ци ю</w>
в се</w>
ер </w>
б у
и т</w>
ит ся</w>
к ры
м ар
ты ся
2 0</w>
в ет
д е</w>
ы ва
с мо
а г
20 0
ри и</w>
i m
я х</w>
е ра
боль ш
е й
па с
ны ми</w>
сл и</w>
то го</w>
t e
бе з
ст ре
ск ая</w>
про из
an </w>
у т
по сле</w>
ц ен
н и</w>
d i
е кт
стан ов
сказ ал</w>
росси и</w>
е щ
ме жд
г ово
ст е
кото ро
с ед
был о</w>
ру д
e n
т ел
y </w>
р е</w>
но ст
ч и</w>
у же</w>
то ч
и г
1 0
е м
ци аль
г а</w>
з на
п ов
с с</w>
ни ков</w>
ко но
с пор
w </w>
ско м</w>
пол уч
ли ц
мож ет</w>
уд ар
р ов</w>
ре ги
ч то
у ль
та к</w>
с о</w>
был и</w>
которы й</w>
ш е
в ел
к лю
в ы</w>
ы е</w>
на з
ri a</w>
го л
щ е
a c
н я</w>
т ы</w>
в ар
с с
о ж
в ал
д ет
я ми</w>
слу ж
ы й</w>
сту п
в у
м од
сообщ ает</w>
и ю
Р ос
ст </w>
ств у
фор ма
m </w>
я м</w>
моск ва</w>
ябр я</w>
я н
т р
дер ж
пе ред
са мо
со став
ни ки</w>
польз ов
б а
ск </w>
с от
г от
р ф</w>
т ра
ри т
m e
g h
П о
А </w>
ос нов
a l
ст а</w>
л ет</w>
то лько</w>
л ения</w>
орг ани
ител ь</w>
де й
на род
ат ься</w>
след ов
св яз
об о
что бы</w>
gh t</w>
тор </w>
ав то
о ру
гос удар
д об
а х</w>
ко м</w>
а сь</w>
об раз
у кра
мож но</w>
а ми</w>
г и</w>
слов ам</w>
в з
т у
ел </w>
ров ан
Рос си
м ин
П о</w>
гово ри
ин форма
ни х</w>
ер и
ци й</w>
с чит
в ин
он и</w>
ча ст
ле к
рез уль
яв ля
i d
к ла
ст ран
д ент
т ур
мини ст
челове к</w>
ш их</w>
от вет
c </w>
о й</w>
м ед
c l
пол н
пу бли
с ил
ени ем</w>
б ан
1 0</w>
сто ро
д ав
ш ен
л ар
ц е
к ре
п ы
аг ент
ру бле
д ж
е з
ка х</w>
ств е</w>
я т</w>
г аз
в ать</w>
по мо
m ar
рубле й</w>
гра м
h e
ещ е</w>
К а
ti c
гов ор
ш е</w>
as s</w>
обла сти</w>
че м</w>
пре сс</w>
г ен
ж е
ит у
ст ат
дол лар
на ход
cl ass</w>
во про
п ло
тыся ч</w>
ф ин
прав итель
р о</w>
ww w</w>
ф ер
ли ч
по след
ве ст
он ов</w>
ра в
ло ги
заяв ил</w>
х а
г руп
от мет
е сли</w>
с ел
ко р
и ск
ст ру
и сто
п </w>
с по
под </w>
от но
на ко</w>
ал ось</w>
это го</w>
ч ер
м но
в е</w>
не й</w>
ц </w>
di a</w>
ал о</w>
пер вы
ен ы</w>
гот ов
t a
буд ут</w>
резуль тат
ан а</w>
ра й
дру ги
с ш
im g</w>
с ов</w>
c o
х ран
ло ж
но му</w>
r a
сот руд
ко гда</w>
е сть</w>
к ру
ни че
me dia</w>
на ру
го ро
сообщ ил</w>
он е</w>
л ение</w>
за ции</w>
k er</w>
м пи
г де</w>
т ов</w>
т у</w>
во м</w>
кол о</w>
и м</w>
ани й</w>
со гла
те х
д ель
ил ся</w>
не ско
из и
ов а</w>
си сте
прези дент
3 0</w>
комп ании</w>
э коно
не т</w>
и мен
r </w>
ал ся</w>
и в
о коло</w>
mar ker</w>
пл ат
ка р
л ь</w>
про ш
про ти
ши й</w>
н ер
дан ным</w>
ков од
го род
был а</w>
у народ
ни ка</w>
e c
д ви
ал о
л у
про грам
об </w>
ar tic
ц а</w>
artic le</w>
эк с
воз мож
б ур
при мер
м ь
ител ей</w>
g t</w>
1 5</w>
не го</w>
пе ра
т ро
ми че
quo te
при з
у прав
по з
во ен
уча ст
ден т</w>
и м
к ур
ст в</w>
пред ел
раз в
со зд
к ро
о пас
гра жд
с ет
ру ковод
тор а</w>
ед ера
пол ити
вел и
чи сл
п ет
п ят
мер и
я с
г е</w>
ни ка
ri an</w>
бы ть</w>
а ют</w>
ски м</w>
t h</w>
д ву
м н
тре б
ел и</w>
я ти
1 2</w>
межд ународ
ств ов
ан ы</w>
ово й</w>
ал ись</w>
ев ро
С </w>
б ер
l o
ра я</w>
ен а</w>
ск и</w>
милли ар
ь е</w>
сл уча
ин е</w>
ре к
quote 3</w>
от кры
стви я</w>
моск ов
м ит
ров ать</w>
Росси и</w>
р ы</w>
ни е</w>
ш ения</w>
ра ж
из вест
r o
у н
ра нее</w>
ф е
х и
с ан
во й</w>
d er</w>
б а</w>
с дел
5 0</w>
ни й</w>
ча с</w>
лю д
гу т</w>
ля ет</w>
ал е</w>
о на
которы х</w>
м ан
i ght</w>
помо щ
доллар ов</w>
в то
о пера
И </w>
про ект
те м</w>
не й
не об
ц е</w>
л е</w>
ни м
ис пользов
мен т</w>
ни м</w>
б ед
а ется</w>
ит ься</w>
ac e</w>
к т</w>
b or
о п
1 1</w>
ж ел
е мы
са й
ри то
явля ется</w>
л уч
вре мен
ма я</w>
по каз
х от
т ран
стра ны</w>
ни и</w>
ед ин
на ш
и мо
ки е</w>
од ин</w>
пл ани
ф едера
чет вер
К о
ав и
общ е
мери кан
разв ити
г ор
ти че
a m
э ле
bor der</w>
тер рито
п ит
до м</w>
ин те
о ст
w id
с ы</w>
во с
д ет</w>
ин тер
груп п
ги б
и ны</w>
ст ов</w>
ц ев</w>
i </w>
а ри
wid th</w>
ре й
o </w>
з </w>
ti on</w>
в стре
ж ур
к ат
кото рая</w>
по зи
2 5</w>
од нако</w>
he ight</w>
про цент
т ен
о ш
Н а
s r
ц ел
i c
ил о</w>
sp ace</w>
М о
г е
се й
sr c</w>
неско лько</w>
чен ь</w>
ил ись</w>
p e</w>
г ру
ско е</w>
до ро
201 1</w>
у с
б е</w>
г ро
к ри
уча сти
ител и</w>
межд у</w>
при ня
д ов</w>
н али
пров ед
ta g</w>
за кон
произ вод
по ли
а б
quo t</w>
а мерикан
t y
з нач
h space</w>
л о</w>
ани ю</w>
к их</w>
вла сти</w>
необ ход
д ва</w>
в ш
без </w>
ч а</w>
по н
ро н
щ ен
ющ их</w>
3 0
ы м</w>
о фи
ч ение</w>
о че
отмет ил</w>
ет е</w>
ши е</w>
не м</w>
ди рек
при яти
1 7</w>
стро итель
про бле
сш а</w>
со стоя
b r</w>
па д
ск а</w>
о чень</w>
б ра
1 4</w>
ер а</w>
ч ь</w>
ty pe</w>
э ти
мет ров</w>
на прав
Ка к</w>
итель но</w>
у ров
ал ек
ж но</w>
ди ми
все го</w>
пров од
рез </w>
О б</w>
ва ет</w>
ц ы</w>
ро й</w>
ят ся</w>
экс пер
ед и
1 6</w>
о каз
т я
201 0</w>
до м
во сто
1 8</w>
201 2</w>
ко го</w>
аль ного</w>
т ри</w>
ят ель
ми ров
об вин
в не
реш ение</w>
аль ной</w>
ев а</w>
ниц у</w>
произ ош
ност ью</w>
по ка</w>
это й</w>
м об
st y
л од
доб ав
фин ан
иту а
мо й</w>
sty le</w>
ч но</w>
и ме
и то
че ских</w>
след у
ф он
милли онов</w>
ж из
проти в</w>
во й
ж ения</w>
гол ов
ь я</w>
от ме
мо н
отно ш
с итуа
пло щ
Н а</w>
прези дент</w>
ющи й</w>
ч ения</w>
про ек
со ответ
ра м
с ент
мо гут</w>
до ку
говори тся</w>
без опас
об е
ё </w>
государ ствен
это т</w>
та м</w>
1 3</w>
че рез</w>
ел ь</w>
с анд
с ро
поз во
к руп
мест е</w>
президент а</w>
в ра
это му</w>
пре мь
у станов
не ф
пра во
суд </w>
про ст
у слов
ж а
ск ую</w>
о предел
ки м</w>
у ни
тр ен
м о</w>
ств у</w>
работ ы</w>
ил и
вы бор
по ч
ф иль
че ской</w>
сей час</w>
фер ен
все х</w>
ст ы</w>
щ ит
з ем
i d</w>
ил ась</w>
2 4</w>
ер бур
0 0
горо да</w>
сов ер
по ла
пар ти
б ел
ри й</w>
к си
из мен
при н
результат е</w>
1 9</w>
до став
э нер
ф о
о кт
че мпи
мест о</w>
на д
ход е</w>
б ю
про долж
ри я</w>
да же</w>
офи циаль
связ и</w>
ф ак
глав а</w>
г у</w>
яс н
ра х</w>
де ка
ка ми</w>
к то</w>
2 1</w>
д ы</w>
2 2</w>
ст вом</w>
аль ных</w>
j ec
е му</w>
сту пл
год </w>
у щ
пы т
ци ей</w>
и я</w>
ка че
ан о</w>
площ ад
a t</w>
з ы
раз </w>
на стоя
за щит
са мы
дека бр
ител я</w>
ател ь</w>
мен та</w>
ме ся
за держ
ов ания</w>
пров ер
с ы
о жи
чи сле</w>
ра к
ш ение</w>
спо соб
а кт
a t
ш а
за да
сл ож
ющи е</w>
стро й
с пи
ра бо
органи за
ли че
рес публи
n dash</w>
пол ож
ш ь</w>
тел е
l i
на цион
эле кт
рат ур
дву х</w>
раз работ
в тор
ев ра
вы со
т ов
под держ
и и</w>
а пре
ян вар
ф евра
in jec
которо й</w>
з о
н у</w>
про це
з ат
а п
оче ред
т ри
x </w>
s on</w>
па ра
к рас
Мо ск
ж </w>
больш е</w>
ка ж
жур нали
re n
ден ь</w>
сво ю</w>
су ще
по гиб
тыся чи</w>
з ани
со сто
сси и</w>
u r
ход ит</w>
я д
с бор
С Ш
ни я</w>
за клю
d e
по ж
СШ А</w>
мат ери
ку ль
ен о</w>
ре мен
по бед
р у</w>
аль но</w>
4 0
И н
ре в
С о
со з
п ен
ч у
мини стра
об од
и гра
д ат
quo </w>
ил о
2 7
ры н
б я</w>
по не
т ин
жд ения</w>
которо го</w>
ал ась</w>
2 3</w>
отме ча
мат и
ф ун
Э то</w>
ани ем</w>
ру ет</w>
на м</w>
про й
информа ции</w>
в ат
м ного</w>
л ен</w>
пу ст
в ал</w>
з ов
с ни
пример </w>
4 9
ен ных</w>
ак тив
стви е</w>
б ло
пред лож
по став
о з
обе спе
к ин
ав гу
агент ства</w>
то й</w>
на с</w>
к ну
би р
19 9
ск е</w>
l a
ме щ
о гра
к ции</w>
моск вы</w>
де й</w>
2 6</w>
ку п
чет ы
г ов</w>
с иль
пет ербур
кра т
б ар
a ge
ад министра
сред у</w>
ро б
э ти</w>
ис следов
по то
за вер
про ис
у з
Т а
лен ы</w>
за коно
о хран
безопас ности</w>
ни ч
други х</w>
ч ин
2 7</w>
из не
д ар
во л
по до
поне дель
за сед
a l</w>
ми ра</w>
со ю
ком анд
б рит
ж ение</w>
террито рии</w>
i t
тор ов</w>
ко личе
по стра
а э
б ла
К </w>
милли она</w>
рам ках</w>
пол у
к вар
че ского</w>
представ итель</w>
м п
пу т
част ности</w>
ви д
про стран
у вели
ра ль
федера ль
втор ник</w>
с мен
сообщ ении</w>
201 3</w>
h 3</w>
j son</w>
а с
o c
кт а</w>
са м</w>
б изне
кон ферен
пар ла
на б
l e
сент ября</w>
кон тро
су б
исто ч
в ну
де с
ф ран
об яз
ст ал</w>
2 8</w>
ве дом
доку мен
стру кт
ет ы</w>
у би
четвер г</w>
се бя</w>
f lo
не дел
ал е
по треб
ст ар
1 8
авто моб
ши м</w>
про ку
д аль
ф ф
ыва ет</w>
ово го</w>
б ал
смо тр
мо р
но логи
ил ось</w>
э та
аль ный</w>
ско му</w>
понедель ник</w>
ан ал
л ся</w>
ч е</w>
1 5
мед и
челове ка</w>
щ ее</w>
мат ри
вла дими
е мо
ру с
мар та</w>
д ов
ком ит
по яв
к е
времен и</w>
под готов
у точ
долж ны</w>
кре т
age s</w>
сс ы
ri ght</w>
ли сь</w>
эконо миче
сай те</w>
польз у
дан ных</w>
o o
дел о</w>
вер жд
се год
в с
дел а</w>
О д
объ яв
пят ницу</w>
v </w>
правитель ства</w>
у голов
укра ин
миллиар да</w>
про ду
е ж
в клю
обще ствен
гражд ан
проек т</w>
пер во
куль тур
пл ан
дру го
im ages</w>
ит а
б о</w>
ос об
прош ло
пред сед
4 0</w>
ген ера
ст ри
спе ци
бю дж
ател ей</w>
гол ос
укра ины</w>
ш его</w>
участи е</w>
с но</w>
х ов
in g</w>
бо е
с од
окт ября</w>
приз н
тран спор
алек санд
j p
под пис
сторо ны</w>
t ren
аль ные</w>
минист р</w>
ва ется</w>
де пу
прост о</w>
к ли
б ит
ми и</w>
2 9</w>
tren d</w>
от каз
ки й</w>
за ви
су м
во р
h e</w>
случа е</w>
al t</w>
комп ания</w>
в ан
а м
о кру
flo at</w>
но ября</w>
соб ствен
ну жно</w>
л он
ц ер
en t
Н о</w>
e t
св обод
премь ер</w>
лю дей</w>
jp g</w>
развити я</w>
ст ов
хо ро
ател и</w>
б аз
наз нач
но р
управ ления</w>
су т
ка м</w>
кон кур
вер си
п ря
s i
пер и
сво ей</w>
ави а
зави си
служ бы</w>
декабр я</w>
л ин
ра ми</w>
о цен
пож ар
ию ля</w>
ча сть</w>
к ило
201 4</w>
г ей</w>
л от
вопро с</w>
об нару
ч ет</w>
ко ми
g i
нач ала</w>
ф ут
О </w>
об ы
ход </w>
те к
у каз
пу н
до сти
г ан
гра фи
комп лек
ли дер
стран </w>
перед </w>
co m</w>
ч ной</w>
й ти</w>
1 6
февра ля</w>
ию ня</w>
е х
тех нологи
из д
ссы л
ко е</w>
ра ди
мы ш
пе й
бли ж
про с
h o
апре ля</w>
ков а</w>
первы й</w>
объ ект
л ении</w>
об рат
рит ель
u n
вз ры
сов ета</w>
ком ан
ч у</w>
в али</w>
ва ют</w>
ству ет</w>
кро ме</w>
январ я</w>
мер </w>
реги он
органи зации</w>
к ред
ров ания</w>
а ре
эконо ми
г ер
мен ь
на д</w>
п а</w>
am p</w>
ски ми</w>
ви де
чемпи она
1 00</w>
яз ы
де ятель
200 9</w>
сто лиц
м ов</w>
вы ш
мо лод
ча сти</w>
st </w>
ател я</w>
дан ные</w>
мно ги
россий ской</w>
се вер
со м</w>
ти я</w>
сред и</w>
росси я</w>
которо е</w>
систе мы</w>
спе к
б от
с ен
М и
У кра
со циаль
авгу ста</w>
настоя щее</w>
моск ве</w>
мо мент</w>
те ат
глав ы</w>
к лу
агент ство</w>
з ан
м э
проект а</w>
мн ению</w>
ос у
образ ом</w>
структ ур
мно го
обо ро
c e</w>
ру ется</w>
имен но</w>
од ной</w>
об ра
о к</w>
вы з
на сел
ни ци
пери од
e m</w>
ту ри
пра к
I </w>
пу ск
1 7
за пре
под чер
де к
про г
ле г
sp an</w>
че ские</w>
орг ан
ме ро
ли мпи
ка я</w>
россий ских</w>
д у</w>
ис пользу
му ж
ря д</w>
ре гу
групп ы</w>
ва д
ис полн
пре достав
спе циаль
А н
2 5
ма ш
пов ы
b </w>
ч ат
6 0</w>
ре ж
и ра
дел </w>
e s</w>
ь ю
ре б
О н</w>
сто л
u t
ч ных</w>
процент ов</w>
пер ь</w>
ш ей</w>
ствен но</w>
a i
од ного</w>
про д
э фф
ре жи
на мер
поч ти</w>
то м
при мен
х ся</w>
ющ ей</w>
у м
у лиц
долж ен</w>
бе ж
ниц ы</w>
ко не
добав ил</w>
ля р
я щ
первы е</w>
реш ения</w>
о го</w>
ст ей</w>
n </w>
точ но</w>
ли шь</w>
до ступ
or t</w>
счит ает</w>
ст али</w>
ени ях</w>
до ма</w>
ва ж
ко с
ст ало</w>
до ста
Е сли</w>
ви дет
та ми</w>
х у
Б о
за мест
и де
вы полн
эти х</w>
П ро
кон це</w>
жи в
че го</w>
соб е
рай оне</w>
ва я</w>
м ал
сво и</w>
дес ят
ет и
l d</w>
бы в
при в
при ни
п ла
пи ш
ябр е</w>
х а</w>
де сь</w>
ж и</w>
д ы
3 1</w>
меро прияти
во ору
то н
в ен
подо з
пор яд
г ает</w>
сво их</w>
ст иту
автомоб ил
1 1
9 5
от е
под т
кото ром</w>
б ро
итель ных</w>
сл ав
то т</w>
стра не</w>
за х
П ри</w>
до полн
сто имо
ми р
с у</w>
россий ского</w>
сод ер
собе сед
с фер
ющ его</w>
други е</w>
тор ы</w>
п ы</w>
фе сти
пар та
ност ран
аэ ро
in </w>
ро ри
п ал
на р
жиз ни</w>
2 8
че ский</w>
город е</w>
ве сти</w>
сегод ня</w>
дет ей</w>
отнош ении</w>
и ностран
мо сти</w>
г н
П ри
наход ится</w>
уби й
оп пози
пол но
са жи
г ли</w>
ак ции</w>
че й</w>
по этому</w>
за кры
про да
кан ди
Д ля</w>
ай те</w>
тре т
дирек тор</w>
од но
ве сти
под об
ка жд
ек тив
е б
гру з
м в
w or
фести вал
г ля
ч лен
вер ну
со хран
201 10
миллиар дов</w>
стви и</w>
па м
у б
парти и</w>
цент ра</w>
с рав
бо й</w>
емы х</w>
n e
З а
по тер
та х</w>
вер д
г ам</w>
при ш
ги и</w>
специ али
ут вержд
тре бу
пола га
Ф </w>
о став
от прав
ру б
на пример</w>
вра щ
ен ные</w>
ра кт
ю ж
ли бо</w>
вто рой</w>
на де
пас сажи
ру ю</w>
минист ер
образ ов
sp ort</w>
Я </w>
Е в
ссыл кой</w>
те чение</w>
услов и
ст ер
рас сказал</w>
ро ме</w>
бер на
фо то
мен ее</w>
л ов
o m
д во
ско ль
публи ков
соб ра
ч ить</w>
сов ет
л ит
ближ ай
то к</w>
мер е</w>
or </w>
раз лич
уд а</w>
депу тат
нач але</w>
ст ам</w>
г он
2 6
государ ства</w>
щи й</w>
ни к
е зд
лен о</w>
евро пей
работ у</w>
та т</w>
с ит
ти ров
на уч
ин у</w>
o l
д мит
очеред ь</w>
до й</w>
9 0
ч ного</w>
щ е</w>
Р </w>
суд а</w>
w s</w>
соб ы
ду т</w>
Н ово
програм мы</w>
ев ро</w>
Д </w>
пред прияти
ра ст
п ат
8 0</w>
под роб
прой дет</w>
у строй
мыш лен
В ла
подчер кну
нач аль
с мер
вы ход
тор гов
п ав
се м
рас сказ
бе с
ре ли
200 8</w>
сту па
проку ратур
вы став
гу берна
количе ство</w>
му зы
у спе
ы вать</w>
владими р</w>
injec t</w>
и на</w>
квар ти
ствов ать</w>
работ ать</w>
я р
тиче ски</w>
состо ится</w>
9 6
в месте</w>
про ход
об уч
нару ш
республи ки</w>
Д ж
ре й</w>
с са</w>
каче стве</w>
иск лю
ent s</w>
сер гей</w>
вы х</w>
ф изи
процент а</w>
тер рори
за ко
ел ей</w>
К роме</w>
во ск
ар х
хо з
из би
ра м</w>
возмож ность</w>
совер шен
до говор
год ы</w>
ран </w>
3 6
л ав
ин ф
ве ро
ыва ют</w>
воз ду
св я
м не</w>
раз д
9 7
у ш
е ся</w>
ь и</w>
п ан
м аль
сов ремен
сл а
ан ных</w>
при чи
ово ль
нов ых</w>
гражд ан</w>
ят ься</w>
комп аний</w>
л ять</w>
ж а</w>
ди на
ж ал
3 7
ри ю</w>
о станов
бан ка</w>
Од нако</w>
з е</w>
А лек
сколь ку</w>
о публиков
д ня</w>
пере говор
м я
р ен
ч ный</w>
т ан
воск рес
ня я</w>
комит ета</w>
s s
ic on</w>
уни вер
ору жи
4 5</w>
минист ра</w>
ко ро
gi f</w>
зани ма
бо л
ре али
ь я
з десь</w>
S </w>
с ен</w>
состав ляет</w>
на х</w>
кра щ
б у</w>
уд алось</w>
ко ла
пото му</w>
извест но</w>
д ин
суб бот
ма кси
ыва ется</w>
201 30
инте рес
к ин</w>
нов ый</w>
кон ф
э ту</w>
пол о
люд и</w>
д атель
обра щ
да ет</w>
сто ит</w>
вы ступ
цент ре</w>
об ре
на за
ал ов</w>
ен но</w>
су жд
фун к
согла сно</w>
ит е</w>
та кой</w>
треб ов
ан г
тре х</w>
на пис
мен я</w>
в из
о лимпи
на ми</w>
элект ро
перед ает</w>
александ р</w>
погиб ли</w>
се крет
раз дел
ству ют</w>
мод ели</w>
мо м</w>
г ре
доро ж
ком мен
3 8
ск а
ново го</w>
ко ль
у л</w>
к вад
s c
п ять</w>
ле й</w>
завер ш
то гда</w>
ш ее</w>
с ил</w>
пред ла
про те
жи т</w>
иг ро
9 8
чи т</w>
3 5
сдел ать</w>
201 20
сообщ ила</w>
ч ные</w>
ност ей</w>
реги она</w>
ф а
C </w>
ж ер
в ним
инте ре
лю б
ел и
п е</w>
щ их</w>
ва м</w>
аэро пор
ал из
воскрес ен
ов ых</w>
пре ступл
1 4
раз у</w>
л ан
ме то
е с</w>
и му
в за
помощ ью</w>
Р ан
Н е
при зна
A </w>
сер ь
поли ции</w>
сообщ или</w>
те х</w>
кред ит
ы в
ст уд
про фе
мин у
четы ре</w>
б ил
вы ше</w>
так их</w>
сво его</w>
срав н
правитель ство</w>
т ру
стан ции</w>
ниц а</w>
конф ли
жиз н
круп ней
мер ы</w>
росси я
смо тре
се к
wor ld</w>
а ф
вну трен
ат а
кт ов</w>
рас простран
кон стру
бор ь
ди и</w>
по стро
п разд
тех ниче
ющи м</w>
В о
ка пит
зи и</w>
обвин я
постра дав
ени ями</w>
з ор
И А</w>
представ ители</w>
то н</w>
с н
иг ры</w>
сет и</w>
наз в
зат ем</w>
ва ритель
ск ры
ти й</w>
с цен
по скольку</w>
им о</w>
н ало
у гро
ответ ствен
д ве</w>
до ров
н ан
ак ти
Р Ф</w>
кон ч
воз можно</w>
сов мест
к ни
сред ств</w>
помощ и</w>
пол уча
де мон
прог но
эти м</w>
ин вести
ш </w>
о х
ще ств
ar i
ва ри
э та</w>
9 4
ру ют</w>
с ми</w>
хоз я
рас следов
наб люд
де парта
ст ала</w>
сторо н
ла сь</w>
обла ст
кон тра
ви ди
вы дел
дей стви
ы ми</w>
канди дат
Ново сти</w>
но к</w>
М ы</w>
У </w>
дей ствия</w>
иск ус
ля ют</w>
м ан</w>
законо датель
эфф ектив
л ось</w>
ар я</w>
те перь</w>
му з
пред варитель
получ или</w>
ен ь</w>
на и
нов ые</w>
объ един
f i
пам ят
числ о</w>
по пыт
ника ми</w>
воскресен ье</w>
право охран
сво й</w>
над ле
о ни
ов и
име ет</w>
стоя н
с прав
м ск</w>
ско ро
ча ет</w>
2 4
сообщ ается</w>
уч ен
Ин тер
команд ы</w>
г ат
ново й</w>
са м
фи ка
p o
ан ные</w>
л ед
ер ов</w>
Ран ее</w>
доста точно</w>
больш ин
суббот у</w>
с и</w>
la quo</w>
наза д</w>
да ется</w>
кото рую</w>
ито гам</w>
на у
итель ные</w>
не в
цент р</w>
се з
больш ой</w>
серь ез
Т о
Р ИА</w>
ra quo</w>
вш его</w>
к в
ен ной</w>
ствен ного</w>
ти е</w>
ми на
от дель
у че
3 5</w>
необход имо</w>
пиш ет</w>
осу ществ
С а
пол ностью</w>
ак ций</w>
й ского</w>
мед вед
за м
ч с</w>
стан а</w>
в ход
u l
ени ям</w>
k a</w>
те ку
л ов</w>
получ ил</w>
на по
та кие</w>
л ы</w>
буд ущ
служ ба</w>
спе ц
собесед ник</w>
п ли
д ней</w>
квад рат
ан ти
проти во
ж ителей</w>
ин стру
долж на</w>
сотруд ниче
о ста
ча я</w>
ве з
вне ш
201 00
лиц ей
o u
R e
конферен ции</w>
ф а</w>
обяз атель
т ю
пред у
парла мен
я ет</w>
ствен ной</w>
бо ро
дви жения</w>
ми ре</w>
дер жи
мв д</w>
огра ни
щи е</w>
ар </w>
с чет</w>
ент ов</w>
брит ан
фи ци
э н
д али</w>
ров али</w>
7 0</w>
ситуа ции</w>
и дет</w>
по пу
ре жд
ат и
сем ь</w>
пар т
информа цию</w>
крас но
послед ние</w>
меди ци
an t</w>
я сь</w>
к ит
рован ы</w>
изби рат
при надле
иму ще
ти на</w>
ш ин
ен ного</w>
ни ком</w>
подчеркну л</w>
ви це</w>
пример но</w>
ку ю</w>
хоро ш
лен а</w>
T </w>
б ин
от в
ос в
t er</w>
использов ать</w>
со ци
явля ются</w>
en </w>
ма ши
об раж
по ясн
стан ет</w>
за вод
мо щ
отно с
ха ракт
e l
ста в</w>
соответ ству
T he</w>
те м
федера ции</w>
деятель ности</w>
Р е
ф ору
По сле</w>
а ка
ш кол
oc i
са ми</w>
га за</w>
бли з
р ения</w>
П ред
се й</w>
хот я</w>
ал ы</w>
работ ает</w>
мест а</w>
си бир
фор миров
мил и
се мь
ри н
соз дан
20 0</w>
получ ить</w>
по лицей
универ сит
журнали стам</w>
во т</w>
о ши
совер ш
с разу</w>
ер ы</w>
д ать</w>
от мен
ко брит
и ници
со к</w>
о конч
е сти</w>
тур ни
ал ь</w>
с пас
перед а
цент раль
полно мо
восто ке</w>
слов а</w>
неско ль
необход имо
на до</w>
е ц</w>
P </w>
т ных</w>
о ч
Н и
у сил
во ро
201 5</w>
кос миче
об нов
ру ч
и мы
л ета</w>
су ль
которы м</w>
Ев ро
пол ня
кон цер
подоз ре
injec tion</w>
все гда</w>
поло жен
С е
ве щ
че му</w>
на чи
че ски</w>
культур ы</w>
та ким</w>
генера ль
та й
ар ь</w>
вы бо
ен ный</w>
Д о
ден ь
по ра
свя щен
б ай
период </w>
ж у</w>
5 0
со един
участ ников</w>
не ц
чит айте</w>
се бе</w>
по стоян
за й
t h
де в
ко ло
ду мы</w>
при вод
С ер
ме ж
ки но
од на</w>
с видет
ст е</w>
ж иль
от дел
ал изи
со л
ма с
об сужд
ров а</w>
с ин
ис а</w>
экономи ки</w>
о ри
О т
сси я</w>
соб ира
К и
m o
ком му
обнару ж
ов ать</w>
пробле мы</w>
з н
щ его</w>
энер г
вари ан
в вед
er s</w>
in c
ну жд
П ер
сто ятель
администра ции</w>
ме х
М е
цион ной</w>
ла й
то ром</w>
ма й
по ступ
жер т
x t</w>
од ним</w>
веро ят
уточ н
вопро сы</w>
1 2
сте пен
мод ель</w>
перво го</w>
v i
бу жд
тя жел
рас ши
реб ен
россий ский</w>
А р
цион ных</w>
вс ё</w>
сотруд ников</w>
рес ур
м чс</w>
у вер
9 0</w>
отмеча ет</w>
Укра ины</w>
по иск
Т е
ну ж
имен и</w>
замест итель</w>
27 2</w>
Вла дими
шен ко</w>
ме ш
про мышлен
ст ью</w>
за пад
смотр я</w>
плани руется</w>
все м</w>
не закон
t le</w>
3 4
c h
вы вод
та ри
нов а</w>
трет ь
ско лько</w>
она х</w>
по р</w>
в ли
у слу
й ся</w>
ти и</w>
вто ро
на й
по куп
ит а</w>
M </w>
о г
сбор ной</w>
вос станов
тел ек
друго й</w>
ствен ный</w>
мы сл
не му</w>
ст ин
сро к</w>
с матри
при обре
ка д
стра те
кажд ый</w>
т руд
многи е</w>
6 0
я дер
органи зов
воору жен
D </w>
заклю ч
об ещ
л ением</w>
верси и</w>
а о</w>
бе ре
g ra
7 0
дел у</w>
ров ание</w>
3 2</w>
inc id
содер ж
П од
лет ний</w>
ш а</w>
произош ло</w>
ни з
ск о</w>
к тор</w>
объект ов</w>
цион ного</w>
соб ой</w>
8 0
бан к</w>
s s</w>
групп а</w>
то же</w>
стоимо сть</w>
s e</w>
ко раб
сообщ алось</w>
ст ать</w>
incid ents</w>
ниц е</w>
спор т
реж ис
бла год
сою за</w>
рас положен
сси он
источ ник</w>
ва ются</w>
ф акт
д ал</w>
ж ении</w>
поряд ка</w>
от ве
мех ани
пут ин</w>
че ская</w>
доллар а</w>
оборо ны</w>
ар ов</w>
не ш
ti tle</w>
дмит рий</w>
вы е</w>
п ил
финан сов
en t</w>
нар ко
раб ат
комп ью
за мет
суд еб
гро м
самы х</w>
ин дек
интер нет</w>
орган ов</w>
рей тин
К он
но с
неф ти</w>
площад и</w>
кол лек
д и</w>
19 8
i l
медици н
ент ы</w>
пер вой</w>
ка кие</w>
емо го</w>
г ри
прив ле
in e</w>
ен ко</w>
опера ции</w>
сво ем</w>
со став</w>
ника м</w>
участ ники</w>
вним ание</w>
к ров
з ы</w>
сотруд ники</w>
v ari
пе чат
пор т
О б
по ст</w>
чи е</w>
ан ало
за пу
си м
te xt</w>
строитель ства</w>
день ги</w>
з доров
из ра
строитель ство</w>
исто рии</w>
за в
финан си
сл и
е го
но чь</w>
рас счит
я ется</w>
уров не</w>
го м</w>
четы ре
ху до
N e
жи во
выбор ов</w>
прин ци
информа ция</w>
a p
т ься</w>
ы ду
работ е</w>
ви де</w>
тра ди
в первые</w>
бое ви
произош ел</w>
основ е</w>
председ атель</w>
ц ени
сто м</w>
ющ ая</w>
образ ования</w>
с п
рын ке</w>
i g
кол ле
коми ссии</w>
к нов
ствен ных</w>
о он</w>
vari ant</w>
воз бужд
ми мо</w>
ав а
возмож ности</w>
рас сматри
то му</w>
попу ляр
бел ору
ведом ства</w>
жел ез
тел </w>
о то
из ображ
Б </w>
на каз
200 7</w>
ча сов</w>
интер в
ма сш
фран ц
д оволь
ш и</w>
чин ов
уголов ное</w>
не зависи
ш о
а стро
a d
по станов
рай она</w>
п ро</w>
провед ения</w>
вы ро
да ют</w>
горо д</w>
че ром</w>
воз глав
И з
столиц ы</w>
по сет
ро ст</w>
насел ения</w>
свобод ы</w>
вал ю
ё т</w>
стат ье</w>
по зд
а ции</w>
укра ине</w>
не которые</w>
дей ств
засед ание</w>
Интер фак
жен щи
ад во
рес пон
по сел
закон </w>
за мен
стат ьи</w>
регу ли
ц у</w>
о пис
ент а</w>
служ а
энерг ети
руковод итель</w>
при ход
прав а</w>
сто лич
у к
эк с</w>
а ются</w>
наи более</w>
сказ ала</w>
газ ета</w>
в ую</w>
ме й
смотре ть</w>
ет ов</w>
аль ное</w>
от став
ре ализ
С и
аль ная</w>
спор тив
В ы
уд а
тра в
емы й</w>
пал ат
чемпиона та</w>
пор я
масш та
Та к</w>
ю ри
са д
ъ </w>
хозя й
ин ци
фон да</w>
интерв ью</w>
пров о
ш ая</w>
подт верд
сред ства</w>
о к
е же
v e
ниче го</w>
представ ителей</w>
то л
3 7</w>
Т ак
чен ко</w>
обо руд
при род
ар а</w>
мар </w>
систе ма</w>
И И</w>
пер со
отмеча ется</w>
ш тат
пред ыду
при ним
конферен ция</w>
сл о
проце сс</w>
каж до
ско н
ко мен
s e
вы ступа
ниц </w>
компью тер
пов ед
за пис
даль ней
ре кла
несколь ких</w>
да х</w>
и й</w>
t o
наход ятся</w>
кон ца</w>
департа мента</w>
квадрат ных</w>
b o
л ению</w>
л ю</w>
до н
Алек санд
3 4</w>
о ао</w>
прошло го</w>
св ет
исто ри
це п
н ю
ров ал</w>
рын ка</w>
П ет
з в
за па
меся цев</w>
результат ы</w>
выбор ы</w>
выбо рах</w>
де к</w>
et y</w>
5 00</w>
за ция</w>
жизн ь</w>
I n
ля л</w>
до ход
анал ити
уд ов
россий ские</w>
я щи
от сут
луч ше</w>
опера тив
проце с
пре жд
е ги
п си
М а
аль ян
с ель
ово м</w>
ве чером</w>
спор та</w>
пер вом</w>
воз вращ
долж но</w>
пен си
у с</w>
лиц </w>
би ра
ем ся</w>
о пы
мен ты</w>
начи на
сан к
пров ести</w>
позво ляет</w>
ча сти
иностран ных</w>
хорош о</w>
муж чи
вы м</w>
З а</w>
кт ы</w>
раз мещ
ав ли
пер ен
Моск вы</w>
200 6</w>
ле з
москов ской</w>
ин ди
о ф
мас сов
ител ем</w>
ча й
сфер е</w>
дви г
ма х</w>
арх ит
сво е</w>
по ни
рас смотр
ров ан</w>
счит ают</w>
дирек тора</w>
уров ень</w>
спи сок</w>
рас ход
о кт</w>
сни з
и но
дел ать</w>
развити е</w>
ку н
под держи
ш та
ч ки</w>
режис сер
й ский</w>
де мо
ны неш
до к</w>
кла д
ti on
ро с
ка кой</w>
зд ания</w>
но я</w>
пер спек
х ват
та ции</w>
ри на</w>
ре мо
ель ю</w>
ющ ее</w>
ан ный</w>
прини ма
спор т</w>
с ъ
по п
к али
франц уз
о е</w>
по священ
ком мер
кру г</w>
ми ха
3 3</w>
Так же</w>
ли к
ар ен
комп ани
пре ступ
he l
гра д
прав о</w>
пи ров
П </w>
профе ссион
помощ ь</w>
при лож
буд ем</w>
ми кро
я л</w>
и д
201 40
глав ный</w>
ит али
сан кт</w>
ру беж
ел а</w>
цел ом</w>
ста б
ака де
само лет
смо три
прак тически</w>
мень ше</w>
раз ных</w>
ствен ные</w>
ур ы</w>
ки ми</w>
цион ный</w>
фут бо
о стан
дей ству
ов ые</w>
б ри
ми д</w>
мит ин
ме ч
ен ности</w>
при говор
не смотря</w>
аль ным</w>
кор пора
ре е</w>
дав но</w>
виде о
наз ыва
вой ны</w>
плат ы</w>
у луч
ел е
чу в
о ль
петербур г</w>
ка са
ш ем</w>
увели ч
3 6</w>
с не
й ской</w>
итель ной</w>
ре чь</w>
к уда</w>
подроб нее</w>
о логи
вер то
полити ки</w>
сл а</w>
ли ш
ма газ
ин вест
стол кнов
по том</w>
ки на</w>
по мещ
пред полага
г ну
ё н
ш ли</w>
засед ании</w>
и мод
раз ви
кон крет
член ов</w>
вер х
рован о</w>
г ран
о про
бюдж ета</w>
ai l</w>
М ар
секрет арь</w>
вод ы</w>
международ ный</w>
встре чи</w>
пис ь
че ским</w>
4 4
ши ро
ци ях</w>
имод ей
кило метров</w>
до каз
прав иль
емы е</w>
ше сть</w>
наш ей</w>
раз а</w>
це ремо
в аться</w>
жен ы</w>
про тив
оте че
рабо т</w>
экспер имен
вин ов
во го</w>
ре комен
о цени
ек т</w>
следу ет</w>
дру г</w>
ус матри
фи кси
чен ы</w>
квар т
реали зации</w>
прини мат
зани м
над зор
a tion</w>
ле й
кило мет
ситуа ция</w>
бы ст
ве с
зако на</w>
стан дар
все й</w>
проис ше
созд ать</w>
фор ми
гл а</w>
ни ми</w>
ду ма
o f</w>
авто бу
ре мон
a g
д ра
виде о</w>
пол ов
ч ном</w>
f o
элект рон
вза имодей
и в</w>
к ал
u </w>
коне чно</w>
л ени
заяв или</w>
руб ля</w>
ча ется</w>
s o
ро ль</w>
прин ять</w>
зна ком
ш тра
3 00</w>
подозре ва
ав ари
на пад
улиц е</w>
p x</w>
В а
3 9
вла ди
иг р</w>
у п
итель ный</w>
за каз
пред усматри
ител ями</w>
ни кола
в у</w>
П ре
ден том</w>
аль ном</w>
2 9
од ном</w>
объ ясн
О ни</w>
исклю ч
из уч
вы ступл
успе ш
ов ание</w>
кри з
ро да</w>
я ли</w>
работ а</w>
правоохран ительных</w>
стат и
та кое</w>
Моск ве</w>
ш у
м ет</w>
точ ки</w>
7 5</w>
уточ ня
В Д</w>
сравн ению</w>
сы гра
реги стри
м ании</w>
и ми</w>
поясн ил</w>
по сред
международ ного</w>
чи к</w>
созд ания</w>
администра тив
состоя нии</w>
т вор
за про
обла сть</w>
ди пло
си т</w>
оружи я</w>
ж ил
s oci
от ли
ё м</w>
медвед ев</w>
неф ть</w>
сту пи
че ское</w>
зо лот
атель но</w>
3 8</w>
пят и</w>
П е
жд ы</w>
слу ш
сл е
Р о
са х</w>
услови ях</w>
вы раз
di v</w>
ци ф
L </w>
ч ин</w>
раз мере</w>
Интерфак с</w>
мо гли</w>
ви и</w>
си рии</w>
а то
бизне с</w>
общ е</w>
телек ан
оши б
Г ос
мен тов</w>
транспор т
действи й</w>
аре стов
след ствия</w>
бизне са</w>
фестивал ь</w>
6 00</w>
фор м
по чему</w>
га х</w>
по хо
о но</w>
ве й
ь ми</w>
дво е</w>
вла стей</w>
страте ги
чи ст
национ альной</w>
з ал</w>
кит ай
за плани
груп пиров
с чет
ап р</w>
государствен ной</w>
ей ся</w>
а ем</w>
пов ер
an d</w>
Н </w>
й ских</w>
ф ай
ra v
у не</w>
б ат
проис ходит</w>
под москов
ен т</w>
еже год
с х
ново сибир
во к</w>
t he</w>
свидет ель
ас соци
мож ем</w>
сай т</w>
t er
кра я</w>
проект ов</w>
пун кта</w>
ен ность</w>
ва с</w>
э ки
у л
со н</w>
ан ной</w>
ком у</w>
201 6</w>
фото графи
ур а</w>
кла сси
кор респон
сво им</w>
49 5</w>
оп ти
ов ский</w>
ши хся</w>
жур н
кон ститу
ин ститу
пере воз
объ ем</w>
заяв ила</w>
чи ков</w>
6 5</w>
ря да</w>
ки ев
по ним
on e</w>
сто й
Б а
э ко
со рев
р г
тем пе
заяв ление</w>
общ ей</w>
ни н</w>
председ ателя</w>
се кун
л ат
В и
част о</w>
ро з
дан ный</w>
при сут
ц ед
не с
мо л
тон н</w>
гос пит
пов од
парла мента</w>
уни что
й дет</w>
констру к
анд рей</w>
от ра
пре ж
Г лав
ц ов</w>
Б ел
возду ш
кат его
ход а</w>
у ро
та кого</w>
сс ы</w>
вклю чая</w>
дви жение</w>
год ах</w>
ни ю</w>
уров ня</w>
ф ев</w>
ли т</w>
раз реш
пред принимат
быв ший</w>
филь ма</w>
со кращ
воен но
г ар
демо кра
вопро сам</w>
ва ми</w>
ков и
приня то</w>
пре тен
сорев нов
ию л</w>
f t</w>
молод еж
полномо чи
ш ан
евро пы</w>
по со
клу ба</w>
дом ов</w>
четыре х</w>
мно же
реги оне</w>
спорт смен
ит ар
официаль ный</w>
6 4</w>
пострадав ших</w>
спо ко
не извест
зада чи</w>
большин ство</w>
e e
пред ъ
си ри
прошло м</w>
изд ание</w>
хи щ
ми р</w>
кра й
пробле м</w>
5 5</w>
c h</w>
кобрит ании</w>
ди ск
вы й</w>
переговор ы</w>
ожи дается</w>
ге ро
во обще</w>
on t</w>
Н е</w>
ещ ё</w>
д ис
по кин
воз ник
смо гут</w>
то пли
ав г</w>
з ен
пл у
пра в</w>
рован ных</w>
м ся</w>
N </w>
ши ми</w>
управ ление</w>
анало ги
3 9</w>
погиб ших</w>
необход имы
состав е</w>
d o
од но</w>
i t</w>
ф ил
мат че</w>
алек сей</w>
производ ства</w>
эки па
хо л
ру ш
ля ется</w>
пер вую</w>
ст у</w>
f f
уч режд
пола гает</w>
говори т</w>
Ч е
m s</w>
по м
e b
ни кто</w>
федераль ного</w>
яс ня
Росси я</w>
ка т</w>
мар ш
ред ак
ч ным</w>
сов ет</w>
на йти</w>
го ль
нач али</w>
цен ы</w>
э </w>
чен о</w>
те о
ч ная</w>
р ь
п ле
организа ций</w>
мо з
военно служа
soci ety</w>
че том</w>
li p</w>
структур ы</w>
пы та
проку ро
произ вед
Л и
вы пу
ур </w>
не до
самы м</w>
з ма</w>
ду м
е ё</w>
p ro
ов ал</w>
ла д
ц ен</w>
ут ром</w>
мер а</w>
по тен
f re
министер ства</w>
отв ет</w>
недел и</w>
бюдж ет
поддерж ку</w>
прак ти
отно шения</w>
вы ясн
при вел
соответ ствии</w>
к с</w>
мин ут</w>
объ е
служ бе</w>
различ ных</w>
d 0</w>
пл от
10 0
па к
во круг</w>
инф ра
Л у
че скую</w>
с пут
ию н</w>
ро ста</w>
ж ей</w>
ско р
финан с
бы вшего</w>
е мой</w>
измен ения</w>
5 8
экспер ты</w>
х ан
ло м</w>
ов ской</w>
город ской</w>
перспек тив
пол е</w>
sp rav
осв обо
воен ных</w>
га ми</w>
само м</w>
сказ ать</w>
во лю
по те
f ont</w>
зд ание</w>
му ю</w>
со р
по ро
в ший</w>
v er
s h
под ав
r an
ме ц
m ail</w>
коман да</w>
Ф ран
сум му</w>
лю бо
те й
ш коль
на в
p tion</w>
и р
х и</w>
сил у</w>
избират ель
hel lip</w>
ито ге</w>
о ны</w>
ва ку
и ск</w>
вал ся</w>
рак ет
д ал
ов о</w>
из б
москов ского</w>
м ени
теат ра</w>
вы яв
не одно
сер и
п ов</w>
ян в</w>
де рев
ди т</w>
экспер т
tic s</w>
приня ли</w>
хо к
4 8
Т А
си ст
ител ям</w>
темпе ратур
ел я</w>
Ч то</w>
m e</w>
7 7
вы числ
ф оне</w>
В се
u s</w>
итель ного</w>
сил ы</w>
пил от
6 6
парт нер
E </w>
лидер </w>
многи х</w>
w it
ез д</w>
первы х</w>
Ко м
рас предел
вли я
по следов
е с
ur e</w>
ь ев</w>
з ер
высо ко
сер в
го рит
п ти
а уд
про то
работ ают</w>
co l
благод аря</w>
дви жи
i r
само лет</w>
Р аз
стаб иль
за р
филь м</w>
с четом</w>
прези дентом</w>
х о</w>
особ енно</w>
ател ем</w>
аль ную</w>
вал ись</w>
систе му</w>
мат ч</w>
регион ального</w>
ю сь</w>
мо ти
комплек са</w>
согла сов
пред полож
созд ание</w>
фор мы</w>
ка м
ста ми</w>
о л
к лон
sprav ka</w>
св ед
мероприяти я</w>
зд ра
щи ков</w>
реги онов</w>
ф ы</w>
ю го</w>
шин г
лен ных</w>
се ред
моб иль
экс плу
е вой</w>
обуч ения</w>
k e
не движи
приня л</w>
во ль
ц ами</w>
н ен
ь ше</w>
руковод ство</w>
о ле
с ня
С ов
состав ила</w>
за регистри
чи ка</w>
действ ительно</w>
В се</w>
ци ями</w>
пассажи ров</w>
резуль тат</w>
сообщ е
p re
взры в
бла го
ц елью</w>
предла га
од ну</w>
в ания</w>
ситуа цию</w>
жд у</w>
з рения</w>
ци к
ез да</w>
пре мии</w>
или щ
пре кращ
фи гу
име ют</w>
откры ты
плани рует</w>
кур с</w>
200 5</w>
щ ей</w>
му ници
собы тий</w>
при д
ми но
предъ яв
с па
кон та
вы гля
цион ные</w>
М ин
анг ли
ко смо
ры нок</w>
т ут</w>
говори ть</w>
г ал
мен </w>
ри тел
л анд
ш ел</w>
го ся</w>
ма ми</w>
столиц е</w>
ат а</w>
мет ал
а т</w>
клю че
ов ый</w>
г ин
ф е</w>
вед у
э й
стан </w>
государствен ного</w>
энер гии</w>
иг ор
е мати
скон ч
ава рии</w>
ри ть</w>
государ ств</w>
му ль
ч ка</w>
бра ть</w>
ш ком</w>
19 7
вер хов
ен ным</w>
по бе
декабр е</w>
фор му
жд ение</w>
архит ект
ро к</w>
ущ ер
за цию</w>
стан авли
кон суль
фут боль
не мец
под раздел
услов ия</w>
не которых</w>
ut ers</w>
н ов</w>
меся ца</w>
ост ров
уче б
позво лит</w>
мар те</w>
fre e</w>
ф ан
g le</w>
поли ция</w>
п але
со чи</w>
защит ы</w>
вы игра
л л
пре вы
дел е</w>
ге я</w>
В ели
марш ру
ющ ую</w>
о гром
оппози ции</w>
з я</w>
началь ник</w>
сою з
мо сть</w>
инвест ор
пу ти</w>
ни же</w>
ал ом</w>
ги я</w>
мест </w>
ф он</w>
которо му</w>
ох ра
вы сказ
p h
удов лет
газ </w>
провер ки</w>
муз е
со сед
си х</w>
управ ля
ника ких</w>
на кан
u s
ов али</w>
од об
состоя ние</w>
тех ники</w>
ста ди
тер </w>
накан уне</w>
мэ ра</w>
прос ь
ц вет
гл у
C h
ря дом</w>
серед ине</w>
В е
ню ю</w>
9 9
R </w>
ближай шее</w>
и е</w>
ци они
С М
январ е</w>
ен ь
само лета</w>
со крат
оче вид
Л е
ш ев
ремен но</w>
глав ного</w>
n i
университ ета</w>
вод о
Владими р</w>
возбужд ено</w>
проис ход
В о</w>
международ ной</w>
происше ствия</w>
огра нич
каждо го</w>
мет ро</w>
иници ати
б ен
согла шения</w>
кри ти
н ель
wit ter</w>
след ствие</w>
состав ил</w>
напо мн
обвин ения</w>
фи р
бор </w>
уд об
p s</w>
ж ители</w>
p ri
7 8
про ходит</w>
зо ны</w>
на т
демон стри
д але
че к</w>
И ра
4 2</w>
ве зд
жиль я</w>
крат но</w>
ско рее</w>
с может</w>
согла шение</w>
л ений</w>
я пон
ал горит
сент ябре</w>
n o
го сти
га ран
недел е</w>
d e</w>
О на</w>
вы нужд
ни ку</w>
ar </w>
при гла
оста ется</w>
в вод
Г ер
P re
переговор ов</w>
наз вал</w>
транспор та</w>
си гн
би бли
кт е</w>
ад ы</w>
ч ное</w>
те му</w>
гра ду
ре ак
само го</w>
пуст ить</w>
ко ор
ur l</w>
ис ход
площад ь</w>
програм ма</w>
до ме</w>
ющи хся</w>
5 5
ребен ка</w>
быст ро</w>
в али
p le</w>
стан е</w>
ы ш
гла сно</w>
пере вод
руковод ителя</w>
d a
На пример</w>
ек ат
б ель
му м</w>
ав ший</w>
прокуратур а</w>
иг ров
ак кред
ради о
мо г</w>
Г аз
пре выш
парламен т
само й</w>
х ал
на пря
о м
аккред ита
ап пара
подт вержд
реги стра
ли на</w>
Г ен
ово е</w>
в место</w>
бор ту</w>
200 4</w>
смо т
вла ст
обяз ан
сли шком</w>
дви ж
м л
постра дали</w>
у в
состав ит</w>
вто ром</w>
al l</w>
ка мп
комп ен
наш и</w>
сов ещ
работ ал</w>
мо но
про цед
регу ляр
причи ной</w>
ре кор
oo gle</w>
кин о</w>
ад ре
поз же</w>
изра иль
ли шения</w>
ран ьше</w>
сет ь</w>
X </w>
сто й</w>
жен щ
ар мии</w>
ло жен
oo k</w>
стре л
Р а
де ву
да ми</w>
мат ча</w>
губерна тор</w>
u b
z </w>
специали сты</w>
ан ного</w>
да т</w>
ше му</w>
х ар
тр ени
при останов
ле том</w>
пон ят
россия н</w>
худо ж
смер ти</w>
ле в
привод ит</w>
ци ям</w>
пом ним</w>
на стро
6 8
бу ма
апре ле</w>
в ов
о ке
д ро
сою з</w>
с ал
Ко гда</w>
4 8</w>
П у
числ а</w>
нов ь</w>
ани ях</w>
э ваку
авто мати
про б
е к</w>
уд ал
v e</w>
м ел
россий ская</w>
ев г
мен т
факт у</w>
от лич
з он
ви ч</w>
му т</w>
ни ж
орг аны</w>
у ра
д л
нель зя</w>
сл о</w>
прокуратур ы</w>
ве ще
рели зе</w>
пра й
по се
меся ц</w>
ле м</w>
гл об
исследов ания</w>
встре ча</w>
B </w>
губерна тора</w>
гово й</w>
мат емати
библи оте
сти ческой</w>
ин жен
на ших</w>
экономиче ского</w>
ва жно</w>
использов ания</w>
4 7</w>
премь ера</w>
стра нах</w>
m i
фика ции</w>
m a
газ еты</w>
мн ение</w>
встре т
п ове
деятель ность</w>
уточн ил</w>
лет него</w>
ля ли</w>
ит альян
з оне</w>
в новь</w>
стре ль
по езд
вы пуск
ма м</w>
конфли кта</w>
ор </w>
г рес
рован а</w>
М ак
раз вед
бо м
ден е
ня ш
sc ri
дав ать</w>
институ та</w>
дума ю</w>
си я</w>
говори л</w>
И с
во семь</w>
te d</w>
отнош ений</w>
акти ви
з ву
я ют</w>
при ят
фестивал я</w>
интер н
у стро
смер т
н ется</w>
as </w>
Д мит
п лю
пози ции</w>
силь но</w>
террито ри
t o</w>
4 1</w>
неф те
ен ная</w>
докумен тов</w>
ти ровать</w>
д жи
те пл
нов а
первы м</w>
ши йся</w>
ле с
фон д</w>
п ру
по нии</w>
у г
ма е</w>
относ ительно</w>
ма гн
второ го</w>
знач ительно</w>
миров ой</w>
ст ер</w>
Ф едера
преступл ения</w>
полу чи
прой дут</w>
вла дель
бло ки
у мень
эксплу ата
маши ны</w>
ки ев</w>
На помним</w>
школ ы</w>
т ин</w>
нач ал</w>
основ ной</w>
С т
бизне смен
4 00</w>
видет ь</w>
бес плат
c e
суб ъ
внутрен них</w>
ве сь</w>
ри с</w>
баз е</w>
коне ц</w>
международ ных</w>
мест ных</w>
з м</w>
програм му</w>
об суд
m s
co </w>
обеспе чения</w>
год ов</w>
ц ам</w>
ne ws</w>
пов тор
лю бой</w>
изд ания</w>
ш ки</w>
повер х
4 7
сегод няш
вну три</w>
за фикси
бо к</w>
ми я</w>
пат ри
ж ан
э т
за боле
ц ити
м ана</w>
технологи й</w>
кре пл
но ябре</w>
пользов ателей</w>
встре че</w>
ве ка</w>
ря с
объяв ил</w>
го й</w>
з ал
e x
М ВД</w>
суще ствует</w>
ис пыт
c on
эко логи
больш ая</w>
докумен ты</w>
И з</w>
ед ли
з ел
х ов</w>
индек с</w>
4 4</w>
зада ч</w>
участи я</w>
получ ила</w>
макси м
созд ав
ств ами</w>
л ы
с ве
представ ителя</w>
па ри
ней ро
об работ
лай н</w>
те ра
ли ги</w>
че ском</w>
на гра
п у</w>
ши еся</w>
неодно кратно</w>
контро ли
за б
ко л</w>
ни когда</w>
миха ил</w>
к н
ур у</w>
фун кции</w>
я ла</w>
СМ И</w>
систе ме</w>
ер ин
ни ке</w>
ар бит
х уд
вс ю</w>
до кла
а ю</w>
необходимо сти</w>
ствов али</w>
сер ии</w>
осу жд
г ать</w>
сан кции</w>
ко д</w>
спек так
по лез
по мимо</w>
В ер
мет ь</w>
тор гов</w>
учен ые</w>
стра ли
н ью</w>
ди а
основ ном</w>
про тя
l y</w>
ре я</w>
ствен ным</w>
тек ст</w>
ч ать</w>
до нец
каса ется</w>
ли нии</w>
i a</w>
бе спор
пор т</w>
вз гля
чи ки</w>
дене г</w>
Александ р</w>
комит ет</w>
de scri
ющ ем</w>
под ход
4 5
г ани
участи ем</w>
суд е</w>
ж ной</w>
ар ти
февра ле</w>
ф или
сла в</w>
окт ябре</w>
прош ед
воен ной</w>
пу те
каж ется</w>
descri ption</w>
ствен ное</w>
ч рез
обеспе чи
ов ым</w>
самы й</w>
при вед
7 2</w>
G P
авто но
сотрудниче ства</w>
рез ер
атель ных</w>
н ер</w>
па рат
ди ало
д нем</w>
се м</w>
ди зай
po li
ст р</w>
у к</w>
ал ко
стре м
нов ременно</w>
ба ш
теле фон
знач ение</w>
Е го</w>
боро ны</w>
уголов ного</w>
предприяти я</w>
со лю
актив но</w>
сообщ ения</w>
стати сти
перво е</w>
стре б
ив ан
вей ц
С С</w>
ше сти</w>
законо проект</w>
col or</w>
ст ал
сист ем</w>
режи ма</w>
по раж
про жи
вед ь</w>
лен ные</w>
футбо ли
мен ед
еги п
Со гласно</w>
ющи ми</w>
го ре
мет ри
социаль ной</w>
в рат
воз обнов
ч т
ст ы
P y
крупней ших</w>
нарко ти
кат астро
д ни</w>
о форм
американ ских</w>
ка зах
коро т
3 50</w>
Та ким</w>
памят и</w>
програм ме</w>
контро ль</w>
мужчи на</w>
С лед
пенси он
уч ит
поддерж ки</w>
агент ству</w>
Те перь</w>
Бо ль
ран ения</w>
посо ль
н град
об стоятель
4 6</w>
4 3</w>
пони ма
Г </w>
ро ждения</w>
и мя</w>
ч ё
6 9
прин ят
у ме
окру га</w>
режи ме</w>
рай он
цен а</w>
требу ет</w>
мет ра</w>
муници п
призн ал</w>
ст ил
ер ни
ма сс
вы да
з рител
да ции</w>
готов ы</w>
послед ний</w>
на сил
за п
криз иса</w>
м ало
беспор яд
проду к
ло у
услу г</w>
масшта б
ч ную</w>
ч их</w>
П а
s si
побед ы</w>
прежд е</w>
ответствен ности</w>
й ские</w>
при соедин
произош ед
аккредита ция</w>
вы сот
з ов</w>
интере сов
конкур са</w>
ша х
круп ных</w>
л ли
u m
каз ан
взры ва</w>
6 5
бол у</w>
обще ства</w>
недел ю</w>
госпит ализи
ка за</w>
предлож ил</w>
мы х</w>
по па
м с</w>
кон цеп
b er
1 50</w>
c i
p er
о о
предлож ения</w>
ов ая</w>
музы к
ше гося</w>
a k
сто к</w>
доволь но</w>
лиц а</w>
ответствен ность</w>
Ц ент
к с
случа й
технологи и</w>
л ин</w>
позво л
со пер
in g
ов ского</w>
дер </w>
u p</w>
чен ных</w>
a f
ре ц
пале стин
петербур ге</w>
о щ
вы полня
д т
повод у</w>
нов ая</w>
режи м</w>
кор руп
ж ить</w>
ш ую</w>
П ут
ни то
оказ ались</w>
ер у</w>
у станавли
2 2
ко ле
само е</w>
х ра
предваритель ным</w>
стра хов
депутат ов</w>
во охран
петербур га</w>
аб солю
ию не</w>
газ про
зи м
ка ких</w>
al ig
э фи
a b
инте гра
а ук
за рубеж
комплек с</w>
20 00</w>
4 9</w>
про спе
проду кции</w>
ствен ная</w>
развити ю</w>
ре а
ля ции</w>
фор ме</w>
с со
гра нич
я че
теку щего</w>
пл ан</w>
кла сса</w>
доб ы
пол я</w>
ти ру
зах ват
польз у</w>
гос думы</w>
Пред став
пре крат
итель ное</w>
та кая</w>
знач ения</w>
раз ме
само стоятель
ф лот
экспер тов</w>
Сер гей</w>
м ало</w>
ж ать</w>
о пер
ди я</w>
плат ить</w>
ск ов</w>
Се вер
официаль но</w>
сто лько</w>
воен ного</w>
с р</w>
ин тел
отмет ила</w>
дел е
началь ника</w>
наход ились</w>
зада ча</w>
ор бит
борь бе</w>
т но</w>
Р у
лон до
С ан
ти па</w>
Ne ws</w>
c ms</w>
Д и
Ми ни
сцен ари
провед ение</w>
голос ов</w>
депу тат</w>
in fo
к ер</w>
оказ ался</w>
пров ин
мод елей</w>
ассоци ации</w>
воен ные</w>
от дела</w>
пре имуще
r sport</w>
з у
побед у</w>
нару шения</w>
публи ка
F </w>
де во
ред </w>
я ко
дес ять</w>
генераль ный</w>
производ ство</w>
ри са</w>
п ед
ат мо
Пет ербур
север о</w>
прош ли</w>
се ре
201 0
Р и
прода жи</w>
3 3
уни к
ро ст
сторо ну</w>
доро ги</w>
авгу сте</w>
дале ко</w>
воз раст
работ а
мод ерни
то рии</w>
род ствен
й те</w>
пробле ма</w>
созд ании</w>
В оз
матери алов</w>
т рас
из а</w>
элект ри
Г ру
l ine</w>
бар ре
201 7</w>
обнаруж или</w>
дт п</w>
за став
обы чно</w>
ка с
ани ям</w>
вы раж
отмеча ют</w>
суще ствов
о ло
в кла
ц ем</w>
щ ем</w>
Re uters</w>
тю рь
ку з
ч ении</w>
я ну
приш лось</w>
7 5
реш ил</w>
с ним
адво кат
нач ало</w>
из мер
росси ю</w>
з вез
6 6</w>
пола г
юри ди
ac eb
бо й
об а
устрой ства</w>
даль ше</w>
н ю</w>
дирек торов</w>
ери я</w>
во е</w>
минист ров</w>
ви д</w>
подготов ки</w>
об слу
poli tics</w>
я н</w>
по т
и меть</w>
ш аг
х ро
s k
та мож
вы сш
из ъ
вой ск</w>
следу ющий</w>
да м</w>
жал об
под вер
ча са</w>
ию ле</w>
пол ит
автомобил ей</w>
не гат
реш или</w>
бан ков
сотруд ник</w>
соответ ственно</w>
улуч ш
справ едли
К ар
дол го</w>
боеви ков</w>
пл ав
провед ет</w>
по прав
рован ные</w>
проект ы</w>
С то
зна чит</w>
aceb ook</w>
чу ть</w>
1 10
други ми</w>
ков о</w>
стви й</w>
но дорож
ч ета</w>
на то</w>
пу сти
6 7</w>
дву мя</w>
послед нее</w>
ри ц
иг ра</w>
та бли
инци дент
Ч то
я ются</w>
американ ской</w>
зависи мости</w>
слож ности</w>
но мер</w>
представ ляет</w>
пол не</w>
Ан д
З ем
ин нова
доступ </w>
у бе
пси хо
лидер а</w>
ори ен
трен ер</w>
х ор
с выше</w>
н ения</w>
проте ста</w>
зна ть</w>
е шь</w>
х ит
щи м</w>
T e
сов сем</w>
у ть</w>
государ ство</w>
г ент
лен ный</w>
семь и</w>
ех ал</w>
то е</w>
тре х
н ал
по ня
М </w>
пере ход
фору м</w>
по обещ
A I</w>
пров ел</w>
задерж ан</w>
по ста
голос ования</w>
Т </w>
По этому</w>
по прос
ре м
й ор
ро зы
к тора</w>
г ект
пуст я</w>
позво ля
ы вали</w>
к ван
александ ра</w>
го ра
фран ции</w>
э кра
м ур
ho st</w>
5 2</w>
S t
с начала</w>
здра воохран
з у</w>
част ью</w>
од новременно</w>
е сте
пер вая</w>
желез нодорож
6 1</w>
журнали стов</w>
суще ству
нау ки</w>
ав ших</w>
ли цен
приним ать</w>
лет ряс
больш ое</w>
рас чет
сл ам
выстав ка</w>
ств ах</w>
суд ь
а в</w>
мили ции</w>
ков ых</w>
ка бин
ти ны</w>
ан т
тру да</w>
яко бы</w>
б и</w>
К у
организа ция</w>
G </w>
нов ую</w>
доку мент</w>
не много</w>
сер д
мо шен
ч ку</w>
принадле жа
расследов ание</w>
использов ание</w>
трени ров
по сад
тури стов</w>
в ступ
ново е</w>
су пру
при мут</w>
th on</w>
оо о</w>
коми ссия</w>
201 8</w>
тран с
наш </w>
200 3</w>
со прово
напис ал</w>
хол дин
a tion
долж ность</w>
реш ений</w>
201 2
фак т</w>
ви ктор</w>
ч лены</w>
за щи
ближай шие</w>
постоян но</w>
ч ен</w>
ос ен
тор же
к ей
иг ру</w>
ба с
кор пу
же ст
глу бо
петербур г
вы чай
С ей
л ер</w>
вш ей</w>
пожар а</w>
запре щ
о зна
мат ься</w>
бан ков</w>
О О
дву х
с про
специали стов</w>
неф тя
ec on
ТА СС</w>
мероприяти й</w>
в ала</w>
пон ять</w>
по кол
в полне</w>
матери алы</w>
s co
красно яр
f or
ан ная</w>
предлож ение</w>
он лайн</w>
степен и</w>
от о</w>
вел и</w>
опы т</w>
5 4</w>
вооружен ных</w>
С ред
рас поря
прай м</w>
ити в
палат ы</w>
зем летряс
объект ы</w>
ли я</w>
глав е</w>
6 2</w>
чрез вычай
произош ла</w>
an d
М у
т ал
в в
рас стоя
тур а</w>
требу ется</w>
с но
ател ям</w>
с ить</w>
мини мум</w>
ре ждения</w>
по ги
пара мет
ш ка</w>
ф ей
комму ника
ыва я</w>
компен са
бр ен
муль ти
Из ра
ствов ал</w>
турни ра</w>
дел и</w>
раз но
основ ных</w>
жен а</w>
ск у</w>
нару шение</w>
воз ра
и ю</w>
обществен ного</w>
гу ман
напомн ил</w>
десят и</w>
сообщ ение</w>
мож ете</w>
a d</w>
станов ится</w>
при ем
предприяти й</w>
ля н
6 9</w>
пред мет
чен а</w>
6 7
m ce</w>
ен ное</w>
ска ж
эконо м
по руч
красно дар
пун ктов</w>
A n
ка в
к ита
in e
нач ально</w>
чер а</w>
по ку
д вер
восто к</w>
че скими</w>
чемпиона те</w>
пу ть</w>
ма ри
х ри
ф и</w>
али зации</w>
все мир
у по
ил я</w>
O </w>
ло к
обеспе чить</w>
6 3</w>
скоро сть</w>
сни ж
со ц
сх е
дет и</w>
предусматри вает</w>
од е
нов ым</w>
город ов</w>
при чем</w>
g e</w>
к ле
повы ш
расследов ания</w>
рат ься</w>
b i
з везд
сси ю</w>
ис пан
владими ра</w>
ден еж
под клю
л яться</w>
ку б
сез она</w>
реги онах</w>
парти я</w>
американ ского</w>
фор мат
Д е
бо ра
негат ив
мэ р</w>
будущ ем</w>
прав ил</w>
гер мании</w>
депутат ы</w>
ре ферен
структ у
то на</w>
9 5</w>
вопро сов</w>
ж илищ
A p
посе щ
приобре т
ко т
исследов аний</w>
самы е</w>
ров ании</w>
р яз
с ю
арбит раж
назв ание</w>
в ших</w>
у регули
кар тин
поги б</w>
поряд ке</w>
персо н
д вор
ра скры
ч лен</w>
6 8</w>
итель ным</w>
хо чет</w>
Что бы</w>
цион но</w>
Пут ин</w>
ро ли</w>
совмест но</w>
мо го</w>
в или</w>
боль шие</w>
ду ма</w>
граду сов</w>
клу б</w>
кар ь
с нова</w>
гл о</w>
ку т
говор ят</w>
ко али
смо гли</w>
ф рак
полити ческих</w>
сдел ал</w>
Т ур
ст ит
тро е</w>
игра ть</w>
дей ствие</w>
тен ни
не посред
a m</w>
гот ов</w>
от ды
с мысл
ни на</w>
p t</w>
други м</w>
э м
а том
контро ля</w>
национ ального</w>
я ся</w>
5 6</w>
при мор
е ром</w>
б раз
послед ствии</w>
мин ут
раз ные</w>
ча х</w>
шо у</w>
об стре
к овой</w>
до маш
военнослужа щих</w>
ли в
полож ение</w>
намер ен</w>
п ля
ст ен
на след
хи миче
больш ого</w>
t e</w>
вод итель</w>
на гражд
ющи еся</w>
ожи д
Л ю
аэропор та</w>
заклю чения</w>
кре м
ск анд
мар к
ан е</w>
нач ать</w>
То гда</w>
вел </w>
на па
при чин
разработ ки</w>
долж ности</w>
освобо жд
я ви
D e
воен но</w>
стат ус</w>
гра ницы</w>
m ent</w>
ш ла</w>
u m</w>
террито рию</w>
жерт в</w>
200 1</w>
состав ля
от риц
руковод ством</w>
ск ри
наход ился</w>
оружи е</w>
каж дой</w>
т уда</w>
адво кат</w>
под а
автомобил ь</w>
h i
alig n</w>
занима ет</w>
женщи на</w>
фут болу</w>
ф ла
коор дина
вал о</w>
го раз
жив ания</w>
раз би
прид ется</w>
экономиче ской</w>
езд е</w>
х е</w>
тиче ской</w>
ель но</w>
дан </w>
кандидат ов</w>
компани ей</w>
i i</w>
республи кан
9 9</w>
раз говор
ар м
ис полня
по сл
государствен ных</w>
прогно зи
кв али
ро ли
Ми ха
откры тие</w>
мо е</w>
объ ек
устрой ство</w>
ер е</w>
соз да
ров ала</w>
министер ство</w>
тел а</w>
ско ре</w>
К ры
сер гея</w>
ре волю
лидер ов</w>
ва шинг
сн г</w>
засед ания</w>
проце сса</w>
econ om
5 1</w>
ин ду
кон грес
исто рия</w>
ак цион
лит е
боль ницу</w>
ани ями</w>
пожар </w>
дел ает</w>
же сто
игор ь</w>
констру кции</w>
рован ный</w>
з во
ar d</w>
ж ных</w>
под ъ
г ей
бу ль
р ение</w>
Ко мп
коло нии</w>
ц ели</w>
авиа компании</w>
россий ским</w>
на сколько</w>
услови й</w>
во ев
переда чи</w>
корреспон дент</w>
сво ими</w>
нор м
о хот
эк спо
искус ства</w>
Сей час</w>
проду ктов</w>
реа ги
g o
о провер
пред сказ
адре с</w>
источ ников</w>
мо ре</w>
уд ив
общ его</w>
шен ы</w>
вз ят
прод л
стоимо сти</w>
треб ования</w>
мо с
музы кан
ря д
мед лен
p ho
дости гну
получ ения</w>
най ден
в ходит</w>
уче том</w>
it y</w>
пров ели</w>
зем ли</w>
наказ ание</w>
ф рон
зи т</w>
од и
ерин бур
5 3</w>
щен ко</w>
множе ство</w>
ли де
p i
выраз ил</w>
201 11
ал у</w>
V </w>
отказ ался</w>
у м</w>
обо рон
зем ель
ри н</w>
г ая</w>
гораз до</w>
ыва ются</w>
сред ы</w>
хо ждения</w>
не возможно</w>
никола й</w>
во ритель
сам мит
дина ми
ти мо
лю бы
ш вейц
вед ущ
дел ам</w>
глав ное</w>
з лоу
А л
хо лод
гуман итар
тор е</w>
прив лек
сконч ался</w>
росси ей</w>
женщ ин</w>
ил ь</w>
п еди
p or
p e
а х
А в
от кро
стви ем</w>
й ском</w>
из беж
Э тот</w>
ну ть</w>
ост рова</w>
выш ел</w>
ты й</w>
ед </w>
ю рий</w>
стой чи
200 2</w>
в ание</w>
режиссер </w>
фору ма</w>
htt ps</w>
t y</w>
лю би
рай онах</w>
недвижи мости</w>
прав ления</w>
мест ные</w>
ин ской</w>
co m
ущер б</w>
горо дах</w>
от чет
p en
автомобил я</w>
дру з
глав ным</w>
ет у</w>
т вер
5 7</w>
самолет ов</w>
t witter</w>
ш вили</w>
конфли кт</w>
мал ень
серв ис
я ро
ресур сов</w>
до сто
сум ма</w>
ан ным</w>
тре тий</w>
уточня ется</w>
су пер
рован ной</w>
магн ит
ин стит
прош ел</w>
Пре зи
дев ять</w>
федераль ной</w>
рак еты</w>
при не
К рас
с ме
ла бора
укра ина</w>
борь бы</w>
рав но</w>
кон стан
задерж али</w>
которы ми</w>
больш ую</w>
стат у
ко пи
g ro
нач ались</w>
приход ится</w>
ul t
не давно</w>
рели ги
край не</w>
следов атели</w>
эта пе</w>
бал ан
пред назнач
город ского</w>
info gra
авари й
доказ атель
програм м</w>
появ илась</w>
са ма</w>
з ало
год ам</w>
источ ники</w>
за интересов
вос пит
ер ж
ge n
х ай
лите ратур
а да
в торы
ведом ство</w>
от а</w>
основ ные</w>
споко й
Py thon</w>
убий ство</w>
увели чи
sp b</w>
цер кв
д вин
P ro
стран у</w>
ре аль
ба ра
ген ери
парла мент</w>
f e
ку ри
рассказ ала</w>
установ ить</w>
утвержд ает</w>
ра ции</w>
деле га
р т
умень ш
сл ов</w>
пу тем</w>
мод у
В В
особ о</w>
вне с
оцен ки</w>
кла сс
наш его</w>
кру гл
в ан</w>
ступи т</w>
п ин
стол кну
финан сов</w>
заяв ления</w>
наход ящи
сим во
ар ы</w>
коммен та
вариан т</w>
мо мента</w>
бо м</w>
б рон
се ми</w>
g in</w>
убий стве</w>
здравоохран ения</w>
Л о
G oogle</w>
ти в</w>
20 20</w>
орган ах</w>
о гон
сро ки</w>
преж нему</w>
кило грам
площад ью</w>
экипа жа</w>
заяв лении</w>
на бра
про голос
щен о</w>
километ рах</w>
т али
столкнов ения</w>
итель ности</w>
нач нется</w>
иг ре</w>
с пустя</w>
стра и
о рит
кре ст
смо трен
мо нито
позд нее</w>
ж у
5 9</w>
Вели кобритании</w>
пред стоя
s u
прав ила</w>
изи ровать</w>
пре ми
музе я</w>
сопрово жд
контра кт</w>
econom y</w>
провод ить</w>
ру ются</w>
ц в
ради к
цел ь</w>
о пол
на ме
P o
республи ке</w>
полити ке</w>
пар к</w>
от ы</w>
окру жа
аэропор ту</w>
ди й</w>
кови ч</w>
С С
соб люд
тел ев
международ ная</w>
озна чает</w>
кре п
пред стоит</w>
по й
больш их</w>
7 6</w>
каче ства</w>
процес се</w>
об а</w>
К ан
z e</w>
U </w>
атмо сфер
сл ыш
потен циаль
взры в</w>
8 5</w>
ло м
боль шим</w>
фак тически</w>
жен о</w>
ел о</w>
помо чь</w>
пря мо</w>
e t</w>
дал ее</w>
надзор а</w>
к л
связ ь</w>
ар к
отстав ку</w>
5 8</w>
т ра</w>
п я
лик ви
гл уб
бр ю
матери ал
руковод ства</w>
ев о</w>
в ру
мошен ниче
послед у
подпис ал</w>
доб ров
полити ческой</w>
вал ась</w>
официаль ном</w>
С у
совершен но</w>
ви с</w>
под ня
ta l</w>
мы е</w>
бол ель
ет ь</w>
реш ить</w>
провин ции</w>
послед них</w>
различ ные</w>
восто ка</w>
пов режд
поря док</w>
намер ены</w>
много числ
результат ов</w>
гру зов
кварти ры</w>
женщи ны</w>
3 2
по кры
конкур ен
сс ср</w>
ос мо
буд ь</w>
протя жении</w>
му суль
за вед
ла гер
та я</w>
пере мен
связ ано</w>
живо тных</w>
при вы
худо же
7 7</w>
при ступ
церемо ния</w>
с верх
оф ис
h er
и ран
задерж аны</w>
че сть</w>
Ком мер
маш ин</w>
ров аться</w>
ше к</w>
раз мер</w>
состо ит</w>
тор у</w>
аф ри
а раб
ж ного</w>
дру га</w>
ан ато
и ст
ми ссии</w>
наб лю
ms g
лич но</w>
предла гает</w>
энер го
a y
атель ной</w>
бюдж ет</w>
хок ке
баз ы</w>
евг ений</w>
бо к
за д
провод ится</w>
та ки</w>
ел ена</w>
количе ства</w>
ги е</w>
Т ем</w>
собы тия</w>
тиче ских</w>
опера цию</w>
вне д
ко дек
персо на
игро ков</w>
обязан ности</w>
отмет или</w>
мест ного</w>
уча ствовать</w>
msg text</w>
оборо т</w>
ле кт
н ет
емы м</w>
служ еб
гово го</w>
сво й
я понии</w>
охра ны</w>
сси в
россий ском</w>
те сти
прав да</w>
сообщ ило</w>
показ атель</w>
групп е</w>
че ства</w>
у э
убий ства</w>
торгов ли</w>
ис п
согла ш
О с
201 3
В от</w>
a ted</w>
сл я
д р</w>
циф ров
прось бой</w>
валю т
тур </w>
до жд
добров оль
ы ск
проход ят</w>
M o
ко ст
науч но</w>
мо гу</w>
ком пон
Д а</w>
объект а</w>
экспер т</w>
здоров ья</w>
оборуд ования</w>
рг изи
мен а</w>
м ной</w>
Коммер сан
ж ений</w>
ра т</w>
ы вал</w>
флот а</w>
С К
A ss
сред нем</w>
путе ше
ц ат
ери й</w>
акт у
г али
ха бар
ч ар
монито рин
слож но</w>
кон тин
полномочи й</w>
под ход</w>
осв обод
полицей ские</w>
en ce</w>
щ ая</w>
ч ине</w>
в ред
кни ги</w>
ту рец
поддерж ке</w>
пол ос
пл ен
мар ки</w>
команд у</w>
чемпиона т</w>
воз буд
цел е
ья на</w>
Г о
пе с
у стойчи
ся т</w>
все му</w>
принадле жит</w>
приговор </w>
доста точ
аль ными</w>
избират елей</w>
вы бира
кри зи
об станов
б рат
специ ализи
хи и</w>
десят ки</w>
тер на
Газ про
ф ото</w>
го ло
a v
служ б</w>
ав страли
п р</w>
замест ителя</w>
контро ль
москов ский</w>
согла сил
измен ений</w>
со ли
белору ссии</w>
отра сли</w>
зна мен
э с</w>
наш а</w>
ани ма
аг ре
живо т
юж ной</w>
то рами</w>
акаде мии</w>
Прези дент</w>
ш у</w>
использу ется</w>
B C</w>
ко рей
ре сто
наш ли</w>
ле жа
инфра структуры</w>
сут ки</w>
fi ka</w>
infogra fika</w>
вы не
в шие</w>
8 3</w>
Д о</w>
л ова</w>
штра ф
ав тор</w>
М ож
ва ем</w>
сегодняш ний</w>
ни н
огра фи
во шли</w>
мино бороны</w>
t s</w>
ежегод но</w>
мет е
телекан ала</w>
ки стана</w>
моск ву</w>
e m
бай дж
цион ная</w>
пар ка</w>
Дмит рий</w>
ва х</w>
конкур с</w>
группиров ки</w>
за слу
оч ков</w>
у ма</w>
стро м</w>
защит ник</w>
со жал
пре од
менед ж
сет ей</w>
те ракт
у бы
ящ их</w>
финанси рования</w>
mo sco
шен ных</w>
обществен ной</w>
ков ского</w>
19 8</w>
ни т</w>
второ е</w>
воз ника
сбор ная</w>
ку ро
об ли
реализ ов
приз вал</w>
or g</w>
строй ки</w>
ком би
ап парат
w e
на ста
Д а
сот ни</w>
исто рию</w>
ь ян
выро с</w>
k o
ов ую</w>
прошло й</w>
вы лет
подоб ные</w>
м ать</w>
приш ли</w>
по й</w>
ic ro
белору с
ен ную</w>
ст рии</w>
хо м</w>
аз и
хот ел</w>
при были</w>
религи оз
сер вер
счит ается</w>
ог ня</w>
ат ив
выход а</w>
запис и</w>
друго м</w>
при мет</w>
подтверд ил</w>
ател ями</w>
гиб ели</w>
б анд
ез ж
инвести ций</w>
мар т
огон ь</w>
пассажи р
ра п
договор </w>
Б ер
каче ство</w>
Все го</w>
состоя ния</w>
хот ят</w>
ли й</w>
о си
и стреб
демон стра
за пуск
зел ен
функ цион
эваку и
d s</w>
смо г</w>
у видеть</w>
ограни чения</w>
интерн ете</w>
ОО Н</w>
состав а</w>
ин ского</w>
атель ные</w>
at e</w>
служ бу</w>
Е ще</w>
право слав
проект е</w>
топли ва</w>
Д он
вед ет</w>
от клю
я бин
дополн ительные</w>
аэ с</w>
ин спек
ла у
A P
объ ясня
напо мина
представ итель
телекан ал</w>
ех ать</w>
представ ля
ча ще</w>
me s</w>
успеш но</w>
эта п</w>
у ско
предполага ется</w>
аз ии</w>
с ф
u c
подготов ке</w>
о лю
верну ть</w>
пози цию</w>
зи я</w>
церкв и</w>
Н А
ф ра
ад рес
социаль ных</w>
случа й</w>
ос на
C o
ры в</w>
ря де</w>
дев ят
ic e</w>
и поте
ф ед
ко да</w>
Р ас
инвестор ов</w>
объ ект</w>
щи ки</w>
верто лет
ент е</w>
теле вид
плани ров
плю с</w>
пло хо</w>
пу ль
дан ной</w>
случа ев</w>
ост альные</w>
запре т
атель ный</w>
ев у</w>
аль терна
противо стоя
преду прежд
причи ны</w>
три лли
че ст
долж ност
ча ют</w>
1 3
молод ых</w>
ag e</w>
Ч ер
постав ки</w>
до сро
американ ские</w>
рован ного</w>
ru ssi
й ская</w>
сод ей
санк ций</w>
зависи т</w>
оказ алось</w>
нор ве
жел а
тек ста</w>
вы йти</w>
самостоятель но</w>
ор а</w>
итель ная</w>
сни жение</w>
рабо чих</w>
та ция</w>
о прав
в последствии</w>
хозяй ства</w>
ожи да
услов но</w>
атель ного</w>
буль вар
ди м</w>
от раж
пи к
д лин
б ов</w>
фор му</w>
ри л</w>
дан ном</w>
ад е</w>
го ри
w i
ц б</w>
Ме жду</w>
Сан кт</w>
постро ить</w>
концер т</w>
А б
г ло
гор я
стра на</w>
зал ож
in ter
и ной</w>
до ля</w>
ги дро
договор а</w>
св ета</w>
услу ги</w>
плат еж
рас смотри
ито ги</w>
промышлен ности</w>
ха м
плат у</w>
ск ла
Т о</w>
итель ную</w>
З ат
говор я</w>
увели чить</w>
прош ла</w>
появ ились</w>
род е</w>
0 px</w>
ни кова</w>
мы м</w>
8 2</w>
стан ут</w>
соз н
еди но
9 6</w>
te n
ко п
эфи ре</w>
обществен ных</w>
e v
М ат
рас полож
у бит
T im
екат еринбур
вос ь
лег ко</w>
церемо нии</w>
d ing</w>
н еле
Pre ss</w>
результат ам</w>
алек се
с вер
mosco w</w>
GP T</w>
постра дал</w>
обвин ение</w>
рай онов</w>
2 50</w>
законодатель ства</w>
ми ра
за ми</w>
ли вии</w>
ж ности</w>
М ед
оле г</w>
зд ании</w>
мо г
пра вам</w>
раз руш
сол не
тов аров</w>
про щ
ан ном</w>
финанс овой</w>
направ лении</w>
м ани
рез олю
государствен ный</w>
ур е</w>
пре пят
не доволь
при вести</w>
зна чи
н ит
ниц ей</w>
цион ное</w>
з але</w>
вз ять</w>
из о
под зем
правиль но</w>
ком а</w>
Ос нов
генера л</w>
па ци
L L
ло к</w>
га ют</w>
настоя щий</w>
отдел ения</w>
участ ков</w>
ди аг
св ет</w>
ис пы
у тся</w>
закон ч
вш ись</w>
из готов
фор ма</w>
ш ос
завод а</w>
характ ер</w>
b e
сти ки</w>
ново м</w>
вопро су</w>
по степен
ма т</w>
групп у</w>
рассмотр ение</w>
ми гра
ма ги
э р
ни в</w>
субъ ект
д нев
прода жу</w>
зани маться</w>
провер ку</w>
з уб
се мей
Э ти</w>
евро пе</w>
ил ет
so ft</w>
ре пор
россий ско</w>
de x</w>
st i
очеред ной</w>
способ </w>
послед ним</w>
назв анием</w>
ч ению</w>
ку бо
специаль но</w>
инци дент</w>
наруш ений</w>
ен ном</w>
8 1</w>
груп п</w>
сторо на</w>
теат р</w>
ще му</w>
про з
1 20
от и
счит ать</w>
гла вой</w>
от клон
Гер мании</w>
прой ти</w>
вели кобритании</w>
кобрит ания</w>
на вер
с март
ша г</w>
ис прав
извест ный</w>
сти ческих</w>
собра ния</w>
вход ят</w>
скоро сти</w>
выстав ки</w>
Ass oci
ан ное</w>
си и</w>
мест ах</w>
мо ло
в скоре</w>
ры в
ров анию</w>
ино гда</w>
президент у</w>
автомоб иль
из в
содер жа
запре т</w>
тимо шенко</w>
мину те</w>
С уд
0 00</w>
со на</w>
выступл ения</w>
год ом</w>
исследов атель
ге о
ру ки</w>
еди ной</w>
зада чу</w>
7 8</w>
про чем</w>
возду ха</w>
шос се</w>
ех али</w>
стро й</w>
то ло
полу чит</w>
199 0</w>
про даже</w>
ре и</w>
сез оне</w>
пор та</w>
генераль ного</w>
прав ило</w>
В ы</w>
ар хи
mar gin</w>
сен а
потер пе
пуст или</w>
ис че
воро та</w>
в спо
кварт але</w>
при орит
ов у</w>
столич ного</w>
0 1</w>
ин вали
высо кой</w>
на ря
М И
В то
в ступл
по смотреть</w>
ви дов</w>
стре е</w>
увер ен</w>
пробле му</w>
простран ства</w>
плани руют</w>
откры тия</w>
с юж
ин о</w>
взгля д</w>
раз мест
ру ем</w>
е мая</w>
ка ким</w>
про дав
при чин</w>
кол он
э п
М ай
1 20</w>
Бел ору
с бер
ауд ито
стов ер
расход ы</w>
ta tion</w>
сл аб
массов ые</w>
чи й</w>
ност ями</w>
Э та</w>
защит е</w>
граждан е</w>
виз у
занима ется</w>
верну ться</w>
про яв
пото к</w>
кон т
европей ских</w>
выгля дит</w>
8 8</w>
в ъ
примен ения</w>
ро д</w>
коммен тари
нер а</w>
ду ме</w>
имуще ства</w>
по м</w>
продолж ает</w>
оста ются</w>
инди ви
u g
конта кт
вла сть</w>
тел о</w>
след ственного</w>
вы бра
сер </w>
E n
стат ь
ос обо
общ ая</w>
хо чу</w>
Ч а
иде я</w>
ли ви
цити рует</w>
ран ов</w>
кан ал</w>
команд е</w>
став ки</w>
со мн
t v</w>
про па
глав ной</w>
област ной</w>
Н ью</w>
i s
л у</w>
случа ях</w>
зд аний</w>
обла д
П ар
в ся</w>
собира ется</w>
Б ар
о не
люд ям</w>
ч ными</w>
ав шие</w>
к но
филь мов</w>
к ер
х у</w>
сдел ки</w>
язы ка</w>
выбор </w>
ac c
7 1</w>
та том</w>
Б ы
рейтин г</w>
аф гани
у ет</w>
необходимы е</w>
ш ин</w>
7 4</w>
пользов аться</w>
ду му</w>
8 00</w>
р ю
a b</w>
кубо метров</w>
мо ро
суд ов</w>
9 2</w>
подчер ки
t a</w>
про фил
по ш
зна ет</w>
Х а
мя г
отнош ение</w>
мл н</w>
7 3</w>
щи к</w>
са мар
то к
анал иза</w>
по гранич
ation al</w>
американ ский</w>
использов анием</w>
у стран
макси маль
свидетель ствуют</w>
чинов ников</w>
подоб ных</w>
матери ал</w>
бор а</w>
трав мы</w>
за воев
энергети ки</w>
ми гран
собы ти
реш ению</w>
0 5</w>
выполн ения</w>
отсут ствие</w>
индиви ду
гект аров</w>
Мини стер
уч ени
т овой</w>
верси я</w>
2 17</w>
друго е</w>
камп ании</w>
I I</w>
с б</w>
под вод
ак ция</w>
учен ых</w>
c ult
язы к</w>
пад ения</w>
l in
В ал
работ ников</w>
фор м</w>
ро жд
дей ствов
суд на</w>
состоя нию</w>
Д ру
ac k
вы ход</w>
штат а</w>
при част
авто мат
пам ять</w>
формиров ания</w>
празд нов
превыш ает</w>
под рост
кар тины</w>
возмож ных</w>
ори гин
боль нице</w>
у полномо
на груз
про ф
фотографи и</w>
до чер
отли чие</w>
опти ми
нач алась</w>
пожар ов</w>
ат ай
коман д</w>
сек су
бы стрее</w>
боль ницы</w>
за пас
сторо н</w>
понят но</w>
полицей ских</w>
гра до
ки ри
ка за
j u
север ной</w>
безопас ность</w>
ел е</w>
противо ре
назнач ения</w>
ст о</w>
г еди
абсолю тно</w>
Ни кола
коман ди
назнач ен</w>
р ению</w>
пу ш
Фран ции</w>
то ри
вы б
отмет ить</w>
финансов ых</w>
вш ая</w>
за долж
регистра ции</w>
су ти</w>
барре ль</w>
украин ской</w>
ощ ущ
су н
у бед
ми т</w>
по к</w>
Associ ated</w>
ед нев
ен ными</w>
администра ция</w>
работ али</w>
власт ями</w>
определ ить</w>
цел ях</w>
создав ать</w>
По мимо</w>
ц кий</w>
люб ов
зна ю</w>
2 3
уп ал</w>
cult ure</w>
взаимодей ствия</w>
бое вых</w>
лени нград
доб иться</w>
ан на</w>
наз ывают</w>
приня тия</w>
пере числ
дей ствовать</w>
ко сти</w>
сту ю</w>
ч п</w>
пред полагает</w>
диск у
вос ьми</w>
инцидент а</w>
ф у
и сла
сто л</w>
влия ние</w>
од ному</w>
кон цу</w>
связ анных</w>
выступ ил</w>
возраст е</w>
выступа ет</w>
отме ч
чен ный</w>
тиче ского</w>
газ о
Вер хов
раз рабат
пров оз
Комп ания</w>
по ст
ви р
7 00</w>
воз гора
буд у</w>
ро сл
ост ались</w>
ну л</w>
за то
А ф
глав ных</w>
в ни
ш ись</w>
бла гот
лет няя</w>
ac k</w>
обуч ение</w>
ут верд
ин ов</w>
рат ить</w>
следу ющем</w>
ход атай
тра геди
провед ении</w>
ж де
Ме жд
раз ру
до говори
ус п
ствен ную</w>
По ль
мини м
потен ци
в и</w>
иг ры
пов ли
бо гат
нало гов
А ль
аль я</w>
итали и</w>
S p
в изи
ган ской</w>
кав каз
преступл ений</w>
теат раль
ни будь</w>
0 2</w>
лин ей
экономиче ских</w>
ub e</w>
ргизи и</w>
украин ских</w>
ат ов</w>
филь ме</w>
9 7</w>
защи щ
и слам
ве к
a z
куп ить</w>
опти м
се г
получ ать</w>
прода ж</w>
оказ алась</w>
дина мо</w>
в ся
am e</w>
сы л
воз ле</w>
област ях</w>
ком на
из бра
сил ови
завод </w>
бе сед
Межд ународ
яро слав
ав тор
бир жи</w>
у крепл
вероят но</w>
киев е</w>
под ел
Л он
мен но</w>
отдель ных</w>
до не
8 8
остров е</w>
во к
комму н
катего рии</w>
област ного</w>
наркоти ков</w>
разработ ке</w>
полити ческого</w>
Моск ва</w>
ател ю</w>
ошиб ки</w>
са ми
в вести</w>
от вер
ю ге</w>
ро ман
авиа ции</w>
Г а
ю р
ени т</w>
луч ших</w>
мо ле
м ин</w>
пис ать</w>
у худ
м ания</w>
кар ты</w>
ми ру</w>
г ряз
сай та</w>
правитель стве</w>
тя ж
централь ной</w>
icro soft</w>
цен е</w>
друго го</w>
мо гла</w>
f al
соответ ствует</w>
з али
шта ба</w>
эксперт из
язы ке</w>
пуст ил</w>
треть ем</w>
ин ский</w>
провоз гла
Гру зии</w>
кризи с</w>
нау к</w>
поправ ки</w>
по св
чер но
ф она</w>
эк стре
э мо
ко моти
стар тов
со ору
ь те</w>
Си рии</w>
лен ной</w>
говори ли</w>
мини стром</w>
вним ания</w>
еж еднев
кра е</w>
ма рия</w>
Укра ине</w>
ыв аться</w>
К ита
А О</w>
Л </w>
ты х</w>
се кре
москов ском</w>
пре крас
муж чин</w>
лон дон
парти й</w>
и рак
провер ка</w>
структур у</w>
е су
неле г
стра нами</w>
народ ного</w>
ф ло
пре подав
нач ался</w>
все ми</w>
ё тся</w>
ри сов
улиц ы</w>
чен ные</w>
ма то
ч ью</w>
иде и</w>
пол ков
ет ии</w>
7 9</w>
B o
уч реждения</w>
н рав
Ap ple</w>
комп анию</w>
ь ма</w>
нач е</w>
обрат ился</w>
представ ителями</w>
М ан
gra m</w>
сдел али</w>
вы двин
итель ность</w>
та кую</w>
э пи
в ит
вид но</w>
запа де</w>
ме сторо
ur n
д ени
рес с</w>
побе реж
преду смотрен
температур а</w>
соб а
при бы
по хищ
Ф С
суще ственно</w>
Т и
сти му
гро з
был ь</w>
правитель ством</w>
треть его</w>
вы бро
пре зен
регион альных</w>
общ ий</w>
у мер
та ком</w>
поверх ности</w>
профе ссо
ал а
LL M</w>
комби на
ящ ей</w>
показ али</w>
заяв лял</w>
се ссии</w>
организа торы</w>
А мерикан
ц ска</w>
пред ложен
г ин</w>
проект у</w>
опера ция</w>
куб ка</w>
g u
сожал ению</w>
характ ер
лу ж
вы пла
про демонстри
П рав
лен ного</w>
9 8</w>
прош л
дент ов</w>
фин але</w>
пит ания</w>
ты е</w>
я нин</w>
цер ков
пообещ ал</w>
стат ья</w>
На цион
Пе ре
пу тина</w>
кор ре
ли и</w>
акт ер</w>
мер ов</w>
пере се
По л
выш ли</w>
докумен те</w>
чел ябин
муз ей</w>
рай он</w>
опера ций</w>
мен я
u ro
ящ его</w>
рап си</w>
связ анные</w>
смер ть</w>
тури зма</w>
Б е
наход ив
ави в</w>
р д</w>
ка и
стандар т
утвержд ают</w>
д рев
фи г
право защит
мест ному</w>
депутат а</w>
сел енной</w>
Мед вед
фин ал</w>
приня ла</w>
благот воритель
доку мента</w>
руковод ителей</w>
от стран
з ала</w>
образов ание</w>
8 6</w>
К ор
времен ем</w>
д вад
общ ем</w>
представ ить</w>
ав торы</w>
w ee
ми ст
пу щ
дипло мат
п ь
ни ках</w>
жил ых</w>
интер фей
логи и</w>
пись мо</w>
ат ся</w>
аналити ки</w>
поп али</w>
сред не
сообще ства</w>
в роде</w>
лет ней</w>
повы шение</w>
аппара та</w>
изображ ения</w>
учрежд ений</w>
гре ции</w>
из начально</w>
выш ла</w>
повы шения</w>
вз ор
лик види
нали чи
у ход
представ лены</w>
не ожи
дан ного</w>
si on</w>
мы й</w>
id e
рус ского</w>
ст ра</w>
по мн
секрет аря</w>
Со л
Т О</w>
брю сс
ро стов
пара лл
сер вис</w>
Глав а</w>
о ном</w>
ц ать</w>
п яти
сси й</w>
собствен ности</w>
кор рек
меди й
ст ек
план еты</w>
ери и</w>
части чно</w>
стат и</w>
ог не
ин ве
реш ением</w>
о ро
0 9</w>
времен но</w>
оке ан
избеж ать</w>
президент ы</w>
ре м</w>
объяв или</w>
ющи йся</w>
Х от
кварти р</w>
ра ун
вещ и</w>
шта б</w>
re di
е сь</w>
пак ет</w>
по может</w>
Федера ль
ков ые</w>
к лет
4 6
мат ер
п ры
намер ена</w>
окру ге</w>
si ze</w>
не ж
выступа я</w>
цион ным</w>
ме кси
p l
ф аль
и щ
сотрудниче ство</w>
основ ании</w>
фун тов</w>
m er
кли ентов</w>
a y</w>
тран сля
характ ери
продолж ается</w>
теат ре</w>
6 45</w>
9 3</w>
ю н
простран ство</w>
украин ского</w>
массов ых</w>
ю к</w>
ев е</w>
ядер ной</w>
провер ить</w>
8 4</w>
полага ют</w>
напад ения</w>
про игра
режиссер а</w>
мор я</w>
встре чу</w>
миров ого</w>
прод ю
рон ов</w>
уча сток</w>
Л а
на бор</w>
кандидат а</w>
е г
эта па</w>
д ри
исключ ительно</w>
fal se</w>
сторон ников</w>
9 4</w>
рассказ али</w>
199 9</w>
ре конструкции</w>
К ри
влади восток</w>
а яся</w>
ыва ем</w>
e d</w>
оди на
ча ются</w>
теле фон</w>
8 9</w>
состо яв
види м</w>
но сит</w>
угро зы</w>
ви ру
вклю чает</w>
с чета</w>
t ol
мер у</w>
к аль
сотруд ника</w>
Сред и</w>
ю бил
зо ло
Л енты</w>
гру зии</w>
ре т
за х</w>
щен ных</w>
корпора ции</w>
а мери
устрой ств</w>
в меш
сообщ ают</w>
на вод
тиров ал</w>
AP I</w>
фран ция</w>
сере бр
до стовер
кан ала</w>
мето д</w>
ери на</w>
Росси ю</w>
стро ить</w>
сро ка</w>
бе жен
будущ его</w>
дальней шем</w>
дан а</w>
Б ан
З десь</w>
покин уть</w>
но мина
ме мо
при ват
9 1</w>
ча т</w>
пун к
проду кты</w>
со с
Че ч
вла де
глав у</w>
го л</w>
ребен ок</w>
Te le
фун да
студ ен
максим ально</w>
ю ся</w>
с ила</w>
вопро са</w>
каж дом</w>
ств ам</w>
дат а</w>
од </w>
вто рая</w>
диаг но
создан а</w>
О лимпи
при каз
ност ях</w>
с част
ви да</w>
поиск а</w>
л л</w>
осен ью</w>
ги ган
созд анию</w>
s k</w>
студ ентов</w>
пре следов
би и</w>
россия не</w>
Од ин</w>
вы ми</w>
виз ита</w>
t d</w>
ликви дации</w>
дипло мати
вой ска</w>
ж итель
и сте
энер ги
требу ют</w>
полити ка</w>
су ждения</w>
ма к
за груз
интегра ции</w>
сохран ить</w>
в ита
а рии</w>
показ ывает</w>
цион ную</w>
альтерна тив
пл аны</w>
запро с</w>
произ о
o p
от рав
подраздел ения</w>
про коммен
у ви
оппози ция</w>
по иск</w>
ан он
фор вар
со против
тат ар
фин ала</w>
би ологи
жи д
об уча
мужчи ны</w>
социаль но</w>
с форми
В ен
рекомен дов
будущ ее</w>
газпро м</w>
президент ских</w>
чемпи онов</w>
ж ный</w>
i s</w>
ши на</w>
вз росл
3 60</w>
аук ци
пи ра
за меч
И г
грузов и
е ма</w>
пер </w>
вы ра
ч ности</w>
анал из</w>
лау ре
слов о</w>
недел ь</w>
требов аний</w>
и дут</w>
ai ly</w>
механи з
бри га
ко сть</w>
предостав ить</w>
кораб ля</w>
л ана</w>
мос гор
ка п
мат чей</w>
гро зит</w>
заклю чается</w>
обработ ки</w>
участ ке</w>
газ ете</w>
Зат ем</w>
б он
в чера</w>
0 8</w>
увели чение</w>
ав шего</w>
телефон у</w>
мет р</w>
д д</w>
вид у</w>
Й ор
соверш ил</w>
при быль</w>
поста вок</w>
R o
использу ют</w>
за о</w>
К ур
од ино
до х
ме й</w>
ка ра
зах ва
Евро пы</w>
обеспе чение</w>
цен т</w>
аре ст</w>
оцен ке</w>
ле чения</w>
интере с</w>
способ ность</w>
дол го
pho tol
ле е</w>
д вой
ну т</w>
9 3
дет ь</w>
то п</w>
и наче</w>
С в
аз ер
о сторо
луч ший</w>
си в
раст ет</w>
Ш а
за куп
поп ал</w>
у потреб
photol ents</w>
a u
од ерж
зан яти
ч ность</w>
or e</w>
ре в</w>
расход ов</w>
актив ов</w>
пре врат
ауд и
пове ст
И гор
y o
фра г
ут ра</w>
цент ри
у те
ми ро
гос ро
отече ственной</w>
кра си
вод а</w>
ап ел
D i
покол ения</w>
тро й
вир ту
пе ви
жиль е</w>
су дом</w>
и ч</w>
L i
щи ка</w>
регуляр но</w>
м ель
т с</w>
отказ ались</w>
ат ри
ком пози
посоль ства</w>
коммента рии</w>
получа т</w>
сто го</w>
обязатель но</w>
2 1
интерес ы</w>
вол го
0 3</w>
оцен кам</w>
at a</w>
мет ро
нали чие</w>
ми на</w>
вес ьма</w>
ви к
добав ила</w>
ма стер
есу э
n ational</w>
не уда
аэропор т</w>
появ ится</w>
K </w>
дав ление</w>
8 7</w>
хабар ов
Во сто
э по
счит аю</w>
винов ным</w>
вели кобритания</w>
дей ствует</w>
не совершен
дол га</w>
н ение</w>
жен ных</w>
го стей</w>
угро ж
нов ения</w>
мен том</w>
су ток</w>
ка ет</w>
стра х
му ля
миров ых</w>
запу ск</w>
Е С</w>
ител ю</w>
постепен но</w>
у ступ
q </w>
то рия</w>
бе реж
криз ис
пят ер
насел енных</w>
скор б
публика ции</w>
Р ез
вз ыск
телек анал
эле ментов</w>
ко й
вз я
Ч ел
и рина</w>
фрак ции</w>
ново стей</w>
удар </w>
в руч
провод ит</w>
оль га</w>
участ ка</w>
d 1</w>
современ ных</w>
дол госро
объяв ила</w>
вза имо
необходимо сть</w>
д ен</w>
нуж ны</w>
ре зи
б ак
pri me</w>
sc i
оборуд ование</w>
ил л
попыт ки</w>
емо м</w>
полож ения</w>
i l</w>
зап ись</w>
или и</w>
в печат
готов а</w>
парт не
полно цен
ш ав
д ва
мо к</w>
хот им</w>
съ ем
прокуро ра</w>
пу ск</w>
маш ин
да ге
пл ения</w>
проце сс
бю ро</w>
наз ывается</w>
рус ский</w>
ит ы</w>
те пло
с ур
дополн ительных</w>
реш ать</w>
Д у
ор дж
чен ного</w>
школ е</w>
b as
лицен зи
раз решения</w>
состоя лся</w>
при сво
ани на</w>
t on</w>
ко з
ши т</w>
ар т
простран стве</w>
пол ный</w>
звезд ы</w>
моск ви
появ ился</w>
ово к</w>
непосред ственно</w>
0 4</w>
пре вращ
федераль ный</w>
ч ением</w>
L e
пар ков
или зации</w>
десят ков</w>
рез ко</w>
бу к
том ск</w>
обо з
об народ
Владими ра</w>
Анд рей</w>
секун ду</w>
де ят
По след
за работ
оконч ания</w>
кур са</w>
Об ъ
напа да
тео рии</w>
вы с
де шев
ан ную</w>
ц у
ж ил</w>
эп из
s er
j o
привле чь</w>
верси ю</w>
удовлет вор
сл уч
лет них</w>
е том</w>
матери але</w>
г ан</w>
патри ар
К ит
лидер ы</w>
перен ос
куз нец
полага ется</w>
ни как</w>
ф ов</w>
поступ ило</w>
рат ы</w>
экономи ке</w>
создан </w>
г ры
кры м
структур а</w>
замет ил</w>
эк ск
мен ять</w>
ат ы</w>
итель ными</w>
ш кол</w>
коллек тив
й д
вероят ность</w>
дов ер
ира на</w>
извест ных</w>
сторо не</w>
форму ли
азер байдж
шен ной</w>
спи кер</w>
Алек сей</w>
Tim es</w>
выполн ять</w>
по га
уг ле
са мая</w>
граждан ской</w>
финанси рование</w>
мили цион
два жды</w>
сек тора</w>
суд но</w>
г ав
рекор д
ведущ их</w>
ови ч</w>
пере кры
Д э
ле чение</w>
са да</w>
свед ения</w>
ров ой</w>
медлен но</w>
провод а</w>
1 prime</w>
эксплуата цию</w>
И менно</w>
вра чи</w>
ден ти
ров ки</w>
аб ил
ков ский</w>
фигу ран
та цию</w>
маги стра
откро ется</w>
состоя лась</w>
фон дов
C om
показ ал</w>
И х</w>
ба ск
олимпи йских</w>
ствен ном</w>
l u
доро г</w>
Ч С</w>
установ лено</w>
кит ая</w>
d a</w>
д зе</w>
пра ши
реги он</w>
го на</w>
отнош ению</w>
p ar
russi a</w>
прав ил
капит ала</w>
прото кол
регу ля
прилож ения</w>
отказ аться</w>
сил ами</w>
последов атель
сез он</w>
A l
пре се
те ма</w>
еди ниц</w>
ос вещ
ш ении</w>
провод ят</w>
послед ствия</w>
в не</w>
in do
ан с</w>
199 8</w>
тиче ские</w>
гра д</w>
гра нице</w>
пож ал
север е</w>
ber g</w>
чит ать</w>
ле кар
коро лев
Пер вый</w>
бан кро
принима ют</w>
пыта ется</w>
да фи</w>
подозрева емых</w>
рак ет</w>
измен ить</w>
мл рд</w>
ав тора</w>
хот ь</w>
з ин
предполож ительно</w>
спе кт
пол ной</w>
гол од
игра х</w>
я щие</w>
зан я
рат ель
источ ника</w>
мо на
ди ны</w>
9 95
удовлет во
мор ского</w>
кры ма</w>
сво ему</w>
тера кта</w>
ц ы
федераль ных</w>
международ ном</w>
э ль</w>
ви га
М ари
ве чер
не восто
Р ус
ры ва</w>
порт ал</w>
вед ется</w>
обращ ения</w>
вод у</w>
ти ва</w>
оцени вается</w>
t r
вин у</w>
мульти медий
ро м
поз итив
5 7
ле они
принадле ж
принима ет</w>
поруч ил</w>
скри п
тат ьяна</w>
Е сть</w>
в д</w>
под чин
не большой</w>
а да</w>
моз га</w>
le t</w>
европей ского</w>
ат ак
ив ан</w>
чи вается</w>
ста ра
трилли она</w>
посел ке</w>
аб ри
серв иса</w>
оборуд ов
э ф
потреб ов
тен ден
доступ а</w>
хот ели</w>
вед ут</w>
ющ ейся</w>
ремон т</w>
структур </w>
че в</w>
вал ось</w>
раз б
у голь
пользов ателя</w>
вой ск
адрес у</w>
пара метров</w>
су хо
террори стической</w>
европей ской</w>
в т
9 2
перспектив ы</w>
тур ции</w>
выясн илось</w>
P h
ци р
F acebook</w>
кварти ре</w>
пл ана</w>
тер а</w>
размещ ения</w>
p u
по зна
qu e
диа па
слуш ания</w>
пыта ются</w>
Лон до
мето ды</w>
по ру
к э
жи вать</w>
сотруд никами</w>
закон у</w>
сум мы</w>
за м</w>
ниц ах</w>
ро ско
пси хи
род ился</w>
обнару жены</w>
за мед
ел ось</w>
ran ce</w>
м лад
ле в</w>
ре ки</w>
ле бед
рабо чей</w>
дер а</w>
и денти
комму ни
перед ать</w>
жд ать</w>
сред ней</w>
E x
способ ности</w>
направ ления</w>
жерт вами</w>
контра кта</w>
ар т</w>
ид ти</w>
жд </w>
игро ка</w>
корпора тив
зав тра</w>
катего ри
космиче ской</w>
бе ско
стан ций</w>
поли цию</w>
бу кв
позво ляют</w>
минут ы</w>
з ин</w>
ле ген
О ба
прогно з</w>
ра ди</w>
об ер
пыт ались</w>
о па
милли он</w>
t ra
больш ей</w>
е вым</w>
репор та
уточня ет</w>
дан ными</w>
основ ным</w>
на рода</w>
про стой</w>
сцен е</w>
к ера</w>
верд лов
строитель ству</w>
журн ала</w>
послед него</w>
об мен</w>
правитель ству</w>
сни жения</w>
ц ева</w>
осна щ
медицин ской</w>
спи ске</w>
C on
ne t</w>
проз ра
0 7</w>
бульвар </w>
A F
раз ли
A S
ит и</w>
Н у</w>
празд ник</w>
заключ ил</w>
еги пет
а ста
боро ться</w>
ш вед
шен а</w>
се веро
аль ному</w>
т во
выз ывает</w>
чи вать</w>
с б
страте гии</w>
пов а</w>
ля ются</w>
прекрат ить</w>
ак цию</w>
баз у</w>
ва сто
пре быв
хо ждение</w>
вы год
A r
ва сил
боеви ки</w>
к м</w>
част ных</w>
Д ав
централь ного</w>
Федера ции</w>
уд ел
во ло
ред акции</w>
ти ю</w>
заболе в
производ ителей</w>
6 4
мину с</w>
пер вен
торгов ых</w>
плат а</w>
прокуро р</w>
суд ья</w>
бло ка</w>
ка кое</w>
ре конструк
объе ме</w>
m an</w>
у ж</w>
автобу с</w>
повед ение</w>
дмит рия</w>
пад ение</w>
мероприяти е</w>
наз вали</w>
к п
ту ро
ча ми</w>
опас ности</w>
итали й</w>
под суд
необ ы
пере мещ
зав ис
ор ке
наш ем</w>
доб авив</w>
атель ства</w>
тер мин
ss e</w>
мо роз
слав а</w>
се мей</w>
Т В</w>
направ лены</w>
тек сте</w>
тео ре
про пав
e ing</w>
зна мени
соревнов аний</w>
МИ Д</w>
запу ска</w>
лект у
х ен
а ция</w>
мэ рии</w>
дет ских</w>
фан та
москов скому</w>
обращ ение</w>
наход иться</w>
рован ная</w>
f f</w>
сы н</w>
обли га
физи ческой</w>
послед ствий</w>
международ ным</w>
П ав
предла г
не известно</w>
резер в
мор ской</w>
связ ей</w>
экс педи
опол чен
террито рий</w>
современ ного</w>
0 6</w>
конститу ции</w>
дис ци
доро ге</w>
зна ем</w>
в шегося</w>
B BC</w>
митин г</w>
не дав
n one</w>
у воль
e l</w>
землетряс ения</w>
использу ются</w>
вес ной</w>
Ка жд
виз ит</w>
продолж ают</w>
д ала</w>
А ль</w>
маш ину</w>
на силь
москов ская</w>
иск ать</w>
ков ым</w>
но чью</w>
мен те</w>
дву сторон
ar ab</w>
ду хов
M ar
на конец</w>
Г у
ка б
космиче ского</w>
ре ва</w>
уд ер
вашинг тон</w>
маши на</w>
у рав
ж итель</w>
кра й</w>
за кан
ф онов</w>
по сту</w>
чи на</w>
С ам</w>
Б ез
ир кут
коле б
ар мей
ж ю
Y ou
ан ными</w>
остан ется</w>
Ва шинг
эксплуата ции</w>
показ ать</w>
199 2</w>
эф фици
наказ ания</w>
до про
под ряд</w>
а го
род ителей</w>
ка мен
эффектив ности</w>
15 3</w>
позд рав
согла с
ар гу
am il
вт б</w>
М од
дол ю</w>
по езда</w>
ш ай
ника кого</w>
ры но
объясн ил</w>
празд нич
д ли
помо гает</w>
универ с
ор ги
пар у</w>
отды ха</w>
готов ности</w>
пол ь</w>
l s</w>
ж ные</w>
b all</w>
сто ль</w>
несовершен но
с се</w>
тури сти
кита й</w>
оба ма</w>
орган ами</w>
об ез
Миха ил</w>
инстит ут</w>
верну лся</w>
ВВ С</w>
зан ял</w>
до ль
o t</w>
трен ера</w>
парти й
бан ки</w>
получа ет</w>
к х</w>
полов ине</w>
пред </w>
эконом развития</w>
f or</w>
по ста</w>
ющ ему</w>
пол ета</w>
M e
без работ
сол н
приз ы
корреспон дент
ч уд
на столько</w>
Бо лее</w>
строитель стве</w>
ново год
вал ерий</w>
рассмотри т</w>
веще ств</w>
посв ящ
постанов ление</w>
кан ад
рас смотреть</w>
соответству ющие</w>
знамен ит
мод ели
199 1</w>
ва ющих</w>
бо ли
ко ри
компенса ции</w>
коман дой</w>
круп ные</w>
поддержи вает</w>
че ство</w>
bl e</w>
трет ье</w>
вед ения</w>
мен ту</w>
в яче
любо м</w>
связ аны</w>
вы руч
ки ева</w>
пользов атели</w>
зво н
бу н
стро го</w>
in dex</w>
обы гра
са хал
ит ов</w>
об следов
акаде ми
ан ов</w>
Ев г
канди дат</w>
кон </w>
с мы
следу ющей</w>
до р</w>
эфф ект</w>
1 30</w>
официаль ным</w>
бое при
подтверд или</w>
не которое</w>
намер ении</w>
бло ге</w>
стат ью</w>
t he
пере гово
Мож но</w>
ж кх</w>
хок кей
чин у</w>
госпитализи рованы</w>
J o
состо ятся</w>
выро сла</w>
ост альных</w>
v a</w>
жив ание</w>
попрос ил</w>
договори лись</w>
д ю
куро р
М ЧС</w>
зв уч
при говорил</w>
пред выбор
эфф ект
h a
г але
d en</w>
с ви
ч или</w>
за ку
мод и
гу ю</w>
прод оволь
О ле
ре став
инжен ер
па х</w>
сред него</w>
кам чат
ни ем</w>
К али
стар ший</w>
официаль ного</w>
об зор
напря мую</w>
пример у</w>
рекла м
п аль
использу ет</w>
люд ьми</w>
не при
Н К</w>
управ лением</w>
психо логи
молодеж и</w>
за действов
исче з
пав ел</w>
не у
чи м</w>
формат е</w>
наста и
процес со
цент ром</w>
за ранее</w>
рубеж ом</w>
ж ен</w>
окружа ющей</w>
нос ить</w>
по ступа
интерес но</w>
мир ных</w>
я на</w>
вели кой</w>
комплек с
ст ка</w>
общ ее</w>
период а</w>
со чет
ят а</w>
жд а</w>
рекла мы</w>
под пи
гиб дд</w>
проход ить</w>
исследов ание</w>
А к
f acebook</w>
вывод </w>
сократ ить</w>
приш ел</w>
г ер</w>
яс но</w>
Со ю
ф ило
алко голь
ка фе</w>
измен ение</w>
ми ся</w>
подготов ку</w>
сотрудниче стве</w>
до мой</w>
исп ании</w>
j </w>
un d</w>
нач алось</w>
ост алось</w>
эк замен
сам бле
груп пой</w>
ра до
с ар
ц ев
раз уме
ро ман</w>
из луч
пред полаг
з он</w>
кван тов
ч ке</w>
под н
ня х</w>
ста дии</w>
предлага ется</w>
ра ти
2 10
финанс ового</w>
об основ
вс пы
начина ет</w>
подпис али</w>
amil y</w>
бло к</w>
рус ской</w>
стра ш
про дол
л об
цел ей</w>
беско не
дел ают</w>
ти хо
природ ы</w>
то чек</w>
си д
чит ься</w>
четвер о</w>
заклю чение</w>
ам ур
поч т
зрител ей</w>
из ма</w>
p y
стра нице</w>
отказ </w>
ц ар
кт у</w>
счет у</w>
о скорб
нат алья</w>
космо нав
террори стов</w>
аппара т</w>
коман ду
о с</w>
нуж ен</w>
п ово
ки о</w>
мусуль ман
на счит
доллар </w>
парамет ры</w>
ят ы</w>
M icrosoft</w>
Ан г
участи и</w>
l t</w>
помощ ник</w>
Т рам
проек том</w>
пар ке</w>
рез он
сед ь
Представ ители</w>
зна ют</w>
тюрь мы</w>
нач нет</w>
апел ля
По ка</w>
ази ат
ля х</w>
гра вита
ма х
it e</w>
беспоряд ков</w>
атель ство</w>
го ст
механи зм</w>
баск ет
ги м
i c</w>
коали ции</w>
при близ
T o
ис и</w>
пар так</w>
обще ство</w>
получа ется</w>
эк ст
итали я</w>
дел ец</w>
сов а</w>
об се</w>
O pen
дов ерия</w>
под ал</w>
инф ек
анато лий</w>
кон сер
санк циони
самолет ы</w>
власт ям</w>
жел ание</w>
мол дав
лет ия</w>
том ской</w>
боле з
м анд
fi le</w>
н ь</w>
u b</w>
сел а</w>
соревнов ания</w>
тер ов</w>
s y
кри тер
Крас но
те бя</w>
Александ ра</w>
Г е
спас атели</w>
гла в</w>
развити и</w>
подмосков ья</w>
обрат ились</w>
начи ная</w>
на вы
бы вает</w>
иде ю</w>
ки р
архит ек
колле ги</w>
усил ия</w>
организа торов</w>
национ альный</w>
совещ ании</w>
оппози цион
ко эффици
И тали
тов ари
вы йдет</w>
я ку
физи ки</w>
объ ектив
сниз ить</w>
необход и
ера ль
смотри м</w>
оши бок</w>
n or
с ход
вет е
гаран ти
гра ницу</w>
че скому</w>
пед аго
ран ены</w>
возглав ля
вкла д</w>
пе ч
пол ном</w>
журнали ста</w>
ме га
об суждения</w>
доход ов</w>
Ф ор
п ал</w>
организа цию</w>
х л</w>
туро пера
россий скими</w>
по клон
собра ть</w>
со м
инстру мент</w>
испы ты
у ли</w>
музы ки</w>
pre ss</w>
ф ар
штат е</w>
из вин
получ ение</w>
предприяти е</w>
с или</w>
ш тат</w>
э волю
Гос думы</w>
правоохран ительные</w>
привел о</w>
пес ни</w>
ду м</w>
разработ ку</w>
Во л
f amily</w>
вв п</w>
по соб
откры ть</w>
наслед ия</w>
де кла
w ar
модерни зации</w>
о гла
треть ей</w>
гов ари
марк ет
чу к</w>
общ ую</w>
ь ева</w>
турни ре</w>
моле ку
науч ных</w>
килограм мов</w>
про м
капит ал</w>
на ше</w>
восто чной</w>
я щий</w>
на то
новосибир ск</w>
кре ди
ц ова</w>
И сто
задерж анных</w>
нес ет</w>
спортив ных</w>
контакт ный</w>
ри м
Т ам</w>
анал изи
AF P</w>
меди а</w>
мо ей</w>
свед ениям</w>
серьез ные</w>
ци оне
ком фор
не под
ка меры</w>
резуль татом</w>
К Н
зам главы</w>
подоз рению</w>
современ ной</w>
ада п
содерж ания</w>
изб ран
с меш
полномочи я</w>
диало г</w>
кно п
на вига
ш ед
точ ку</w>
оператив но</w>
разно образ
лет ию</w>
об жал
ябр ь
v o
сигн ал</w>
воен ный</w>
серьез но</w>
практи ке</w>
установ ки</w>
ма стер</w>
открыты х</w>
семь е</w>
ле вой</w>
алко го
сред няя</w>
си м</w>
у знать</w>
g re
игро к</w>
кораб ль</w>
эле менты</w>
Э С</w>
использов али</w>
M L</w>
содер жит</w>
ре мя</w>
информа цией</w>
потер и</w>
Укра ина</w>
цв ета</w>
рав но
Г ор
метро полит
защит у</w>
высоко постав
стви ю</w>
убе жд
посел ка</w>
труд но</w>
лан дии</w>
мо ль
n g</w>
сю да</w>
опа са
реш ении</w>
ядер ного</w>
П ен
оп ла
завер шения</w>
b ul
ж ан</w>
следу ющего</w>
gro up</w>
суще ствуют</w>
борь бу</w>
тиру я</w>
хри сти
лондо н</w>
гал акти
in her
Белору ссии</w>
Д ал
уча ствуют</w>
Э кс
дости жения</w>
независи мости</w>
раз решение</w>
стоя т</w>
участ ки</w>
по э
p y</w>
вед ение</w>
ма сси
вы платы</w>
inher it</w>
цент ров</w>
соб янин</w>
украин ские</w>
лиде ром</w>
насил ия</w>
получ енных</w>
vi e
ст ся</w>
в перед</w>
у н</w>
вш ем</w>
за цией</w>
тор ги</w>
в ход</w>
произошед шего</w>
использу я</w>
ло комоти
вы брать</w>
преод о
ве б</w>
экспо зи
р э
мир ного</w>
мо гло</w>
пыт ался</w>
показ атели</w>
ше стер
мень шей</w>
штра ф</w>
Ч и
исполн ения</w>
ово му</w>
ва й
ос во
пет ров
дер ланд
евро союза</w>
част ей</w>
ри ск
мест ной</w>
установ или</w>
спи ска</w>
У К</w>
представ ление</w>
к уд
нало гов</w>
теку щем</w>
че ре
сообщ ал</w>
наруш ении</w>
субъект ов</w>
рей сов</w>
та ил
ов ании</w>
l a</w>
нор мы</w>
ил лю
З </w>
аль бо
п али</w>
встре ч
пет ро
за повед
199 4</w>
сет ях</w>
сдел ано</w>
примен ение</w>
нов и
т ь
би о
злоу мышлен
дат ы</w>
3 D</w>
Изра иля</w>
наз ем
ти ки</w>
обвиня ют</w>
полити ку</w>
автоно м
у жесто
проти вод
площад ки</w>
кла сс</w>
содерж ание</w>
й ским</w>
по пад
состав или</w>
техниче ских</w>
журн але</w>
саммит а</w>
эк спор
футболь ного</w>
дан ному</w>
в лож
види т</w>
ж ению</w>
афри кан
дорож ного</w>
Г ре
выход ные</w>
внеш не
рекомен ду
indo ws</w>
д н
кров и</w>
актив ности</w>
обоз рев
огне стрель
попа сть</w>
прилож ение</w>
департа мент</w>
в прочем</w>
принци пи
ф аз
ль гот
вш ейся</w>
об е</w>
мест у</w>
т щ
кон со
катастро фы</w>
ан и</w>
ней рон
обнару жено</w>
ка кую</w>
я нов
Р аб
собесед ница</w>
отмет ив</w>
ре формы</w>
следу ющие</w>
ф ект
миха ила</w>
по хит
М но
ход ов</w>
специали ст</w>
l i</w>
де вел
рей с</w>
посвящен ная</w>
постав ить</w>
анд рея</w>
функ ция</w>
ш тур
про пуск
на береж
ответ ил</w>
К О
х им
акцион еров</w>
турни р</w>
жю ри</w>
оте ц</w>
ал ей</w>
пу ска</w>
швейц ар
закры тия</w>
о знаком
в ил
послед ней</w>
ограни чен
у ведом
внеш ней</w>
вы зов
an ce</w>
высказ ыв
у па
до чь</w>
му со
в ряд</w>
ред ко</w>
k i
да ст</w>
граждан ского</w>
состав ить</w>
э ста
199 6</w>
ствен ными</w>
журнали сты</w>
юж но
вер ждения</w>
лиц о</w>
спортсмен ов</w>
выступл ение</w>
транспорт ной</w>
оцен ить</w>
т иту
Со общ
гер мания</w>
полити ческие</w>
сол дат</w>
с наб
материал ах</w>
муницип альных</w>
выро сли</w>
доб ро
пла сти
пов стан
авари я</w>
пред по
противод ей
фир мы</w>
сан ти
пат ру
напомина ет</w>
золот о</w>
основ ная</w>
транспор тных</w>
автомати чески</w>
ха ч
T witter</w>
наз вать</w>
корре кт
эк стра
еди ная</w>
секун д</w>
ру я</w>
надзор </w>
Б уш
инду стрии</w>
груз ин
па ми</w>
руковод ители</w>
шен ные</w>
ve st
сел е</w>
oo t
призн али</w>
де жур
относ ится</w>
F rance</w>
стоимо стью</w>
помещ ения</w>
защит а</w>
большин ства</w>
букв ально</w>
ч ер</w>
цент ра
гу ш
став ка</w>
украин ский</w>
би т</w>
при частности</w>
требов анием</w>
корруп ции</w>
por ter</w>
предлож или</w>
при ся
егип та</w>
ка кая</w>
сы на</w>
уда стся</w>
площ а
от куда</w>
ча м</w>
ду ш
ки ров
полити ческий</w>
199 7</w>
ле жит</w>
ви на</w>
зна к</w>
x i
емо е</w>
нуж на</w>
девят и</w>
ре е
очеред и</w>
ги п
жи м</w>
строитель ной</w>
плат е</w>
разработ чиков</w>
ла з
атель ное</w>
иль я
бер г</w>
o ri
арбитраж ный</w>
кар тина</w>
состав ляют</w>
серебр я
ре гла
росси ян
техниче ского</w>
ля ция</w>
не далеко</w>
ак ка
d er
пун кт</w>
ре до
щи ми</w>
теракт ов</w>
возмож ностей</w>
благо прият
холдин га</w>
бар ди
функ ций</w>
ан ской</w>
получа ют</w>
до гово
Ю жной</w>
мод ель
полов ины</w>
объедин ения</w>
ент у</w>
ья н</w>
ущер ба</w>
199 5</w>
д э
электро энергии</w>
urn al</w>
ба х</w>
мед </w>
ов ан</w>
молод ой</w>
ре абил
вод </w>
свобод у</w>
al y
наш у</w>
пер м
от лож
с ав
обрат но</w>
игро ки</w>
донец кой</w>
бюджет ных</w>
доход ы</w>
па ки
хот елось</w>
П и
у юся</w>
чи ком</w>
при вет
об ед
отв ета</w>
из у
откры л</w>
инстру менты</w>
от зы
дву м</w>
ресур сы</w>
О фи
имо сть</w>
ин тен
установ лены</w>
вел а</w>
потреб ителей</w>
Б уд
рассмотр ения</w>
кажд ая</w>
ус ы
кра е
но ри
ле ва</w>
зон у</w>
жи е</w>
те сь</w>
O S</w>
ре ль
у лич
британ ской</w>
законо проекта</w>
испыт ания</w>
направ л
отдель ные</w>
пра ви
ё р
ро ма</w>
ресто ра
ш ве
до пусти
тре й
по год
ку си
т ед</w>
анг ель
ци к</w>
b e</w>
де фици
работ ки</w>
электрон ной</w>
на оборот</w>
ш ейся</w>
потреб овал</w>
мол ч
зако ном</w>
м г
M a
вывод у</w>
ле са</w>
ав торов</w>
le ft</w>
мет и
Росси ей</w>
арестов ан</w>
кин е
кры м</w>
ск лад
план е</w>
пол тора</w>
ат лан
зарубеж ных</w>
изображ ение</w>
кн р</w>
эк спорт</w>
секун ды</w>
э лит
оцен ку</w>
из дел
ме ром</w>
И сп
y ou
поним ать</w>
ча сы</w>
по на
образ у
ФС Б</w>
специаль ный</w>
космиче ских</w>
наде юсь</w>
энер го</w>
национ альных</w>
начина ется</w>
кови ча</w>
луч шие</w>
ста ро
объе ма</w>
програм миров
от ов</w>
си но
рабо то
тек ст
Не смотря</w>
В месте</w>
ющ его
Зем ли</w>
аре ста</w>
w h
национ али
выполн ение</w>
отра сл
ра сту
с да
ти ем</w>
ву зов</w>
Хот я</w>
призн ался</w>
извест ен</w>
до пуск
мер т
предпринимат ель
ябр ь</w>
ан о
прод ать</w>
использов ании</w>
an g
пор ту
продолж ать</w>
кри мин
маш ине</w>
цион ном</w>
избиратель ных</w>
кругл ый</w>
te l</w>
фунда мент
площад ке</w>
рит ься</w>
7 6
валю ты</w>
функ циони
матер и</w>
подмосков ье</w>
смысл </w>
род ители</w>
интер пре
ру ках</w>
дан о</w>
дет ского</w>
лондо не</w>
мя ч</w>
ющего ся</w>
реализ овать</w>
ключе вых</w>
ас самбле
st at</w>
ак ку
ня ми</w>
много е</w>
бир же</w>
мо раль
подроб ности</w>
пе ше
реализ у
g y</w>
един ственный</w>
поддерж ка</w>
00 00
направ лен
собствен ной</w>
при б
город ских</w>
предлага ют</w>
вынужд ен</w>
совещ ание</w>
Пу тина</w>
ля я</w>
пе в
пере ход</w>
перед ав
участ никами</w>
совершен ствов
ото б
а ки
Ре с
ны не</w>
отве чая</w>
международ ные</w>
парламент ских</w>
з она</w>
ш пи
сфер ы</w>
луч шим</w>
С пе
у рой</w>
in a</w>
дру гая</w>
Х у
ди на</w>
план ах</w>
сообщ ений</w>
увели чения</w>
ари л</w>
за бро
ка ком</w>
or y</w>
ж ением</w>
культур ного</w>
бе сс
ду б
мо я</w>
жен ный</w>
генера ции</w>
кредит ов</w>
le s</w>
за строй
лени н
акка ун
спро с</w>
про ще</w>
воз му
ген директор</w>
банкро т
вз ял</w>
М ил
х уже</w>
sci ence</w>
ш тей
констан тин</w>
обсуд ить</w>
мар ка</w>
f en
ю т
расши р
r e</w>
обе их</w>
те мп
Ф ин
слож ных</w>
мигран тов</w>
на шим</w>
у во
за бы
повы сить</w>
ба ми</w>
вне сти</w>
вол ны</w>
i p
по каж
бом барди
ит ер
та кими</w>
жи вает</w>
сл ожи
председ ателем</w>
s m
ру к</w>
Ви ктор</w>
след ить</w>
а ющих</w>
с вердлов
quote 2</w>
10 00</w>
Ми но
мн ения</w>
H </w>
до мости</w>
выстав ке</w>
ника кой</w>
ги поте
нач ин
Б у
а к</w>
кораб лей</w>
кад дафи</w>
дости г
стиму ли
Т ы</w>
возра ста</w>
k e</w>
за блоки
A ir
ч ков</w>
ориен ти
те мы</w>
алгорит м</w>
заним ал</w>
дет ям</w>
7 4
С Р</w>
прош ло</w>
ост ался</w>
пози ция</w>
предел ами</w>
любов ь</w>
са рат
в плот
8 5
россий ское</w>
ю лия</w>
ран ен
зат руд
приня т</w>
са д</w>
куль т
обвиня емого</w>
ву л
lo c
договор енности</w>
чемпи он</w>
астро но
раз ъ
у ж
k s</w>
N o
граждан ам</w>
ху ли
сро ком</w>
архитект ур
фи на</w>
я ем</w>
кост ю
развед ки</w>
добав ить</w>
э ст
пло хо
высш его</w>
ти п</w>
хокке и
чит ся</w>
d u
емо сти</w>
ш ло</w>
раз ы
рейтин ге</w>
v er</w>
характ ера</w>
ц кого</w>
голов у</w>
лав ров</w>
ж или</w>
дет ьми</w>
плат формы</w>
обстоятель ства</w>
мо ст</w>
редак тор</w>
ро и
реак ция</w>
эта ж
бас сей
ap ple</w>
верто лет</w>
г вар
должност ных</w>
бил иси</w>
ла ми</w>
полу год
тиче ский</w>
о пыт
отве чает</w>
выполн ить</w>
объ ем
дет али</w>
выступ или</w>
быв ших</w>
соверш ении</w>
заплани ровано</w>
чинов ники</w>
выз в
скоро ст
игров ой</w>
Тур ции</w>
ен а
наблюд ения</w>
игра ет</w>
послед няя</w>
С от
о му</w>
злоу потреб
инвести ции</w>
у став
g oogle</w>
tion s</w>
ма г
студ ии</w>
пред от
навер ное</w>
приват и
атом ной</w>
к л</w>
гос под
п п</w>
la y
ев ский</w>
правитель ственные</w>
следу ющим</w>
аб х
с ан</w>
до ну</w>
мат ив
л ур
призна ть</w>
иници атив
эффектив ность</w>
Т С</w>
W or
х ин</w>
реали зацию</w>
мил а</w>
тради ционно</w>
шен о</w>
заверш ить</w>
ч ется</w>
призн ан</w>
че чен
гра де</w>
не м
та ба
рейтин га</w>
ск уль
га й
Н ор
d o</w>
зем ле</w>
ост ров</w>
сос редо
стан ция</w>
привел </w>
ре ц</w>
алексе я</w>
т ар
обязатель ства</w>
М не</w>
управ лении</w>
муз ее</w>
уз бе
уч ё
ос ад
структу ри
ра но</w>
подозрева емого</w>
систе мой</w>
боепри пас
гра ф
тур е</w>
случа и</w>
18 0</w>
зем лю</w>
профессо р</w>
х э
любы е</w>
провод ятся</w>
тиче ская</w>
ли ди
дум ать</w>
хват ает</w>
л он</w>
ради о</w>
al i
казах стана</w>
чемпи он
М ен
кине мато
специаль ных</w>
финансов ые</w>
ж ем</w>
п лей</w>
сов ете</w>
де ко
заверш илась</w>
зам министра</w>
ви ктора</w>
дру гую</w>
щ а</w>
бо рис</w>
en d</w>
прово ци
програм ми
сбор ную</w>
из обре
св ят
архитект уры</w>
ново му</w>
ку с</w>
функ цию</w>
ш к
вынужд ены</w>
изуч ения</w>
поддержи вать</w>
вой не</w>
россий скую</w>
автобу са</w>
фигу ри
Ю рий</w>
Рес публи
р ной</w>
ст ани
лет и
пораж ение</w>
возмож ным</w>
л д
to p</w>
рекор д</w>
бли же</w>
представ ляют</w>
очевид но</w>
в шийся</w>
199 3</w>
граждан ин</w>
фило со
10 2
Е </w>
d oc
уча ствовали</w>
федераль ном</w>
ва ющий</w>
тыся чу</w>
соб о
ра д
звез д</w>
К С</w>
официаль ных</w>
U n
пис и</w>
пред ше
то не</w>
по чет
G ro
ни же
И ТА
инстру ментов</w>
отнош ениях</w>
голос ование</w>
прово ка
вариан ты</w>
возмож ные</w>
мет ров
х ова</w>
N N</w>
пись ма</w>
разви вать</w>
дон ба
обрат ься</w>
гражд анина</w>
Ne w</w>
произош ли</w>
не пре
фи ц
собра ние</w>
ер т
объяв лен</w>
возду х</w>
преми ю</w>
преду пред
ри ли</w>
проте сту
ё л</w>
м ова</w>
свет лана</w>
смот ра</w>
Се год
у са</w>
ско рой</w>
Е ди
сниз ился</w>
отмен ы</w>
причи на</w>
Я понии</w>
не достаточно</w>
Л ит
Коммерсан т</w>
вз яли</w>
1 10</w>
ИТА Р</w>
П ор
верто лета</w>
ма ра
демон стран
социаль ного</w>
нынеш него</w>
выигра л</w>
эпиз од
член ами</w>
acc redi
напад ение</w>
жалоб у</w>
ве с</w>
вы стре
из м</w>
an s</w>
ор ен
интел лекту
че ва</w>
про кат
вет ер</w>
дол г</w>
парламен те</w>
сбор </w>
тре во
за чем</w>
изображ ений</w>
обла дает</w>
больш ом</w>
н ел
за гру
М ал
мо ста</w>
револю ции</w>
незакон но</w>
сил о</w>
Г ра
по ступи
попыт ку</w>
я я</w>
р ных</w>
с м</w>
ад ы
интен сив
пуст ила</w>
макси м</w>
на дий</w>
рассматри вать</w>
ин г</w>
принят ы</w>
тю мен
Э н
Петербур ге</w>
показ ания</w>
пет р</w>
на ко
совет ского</w>
L o
сер ге
бесплат но</w>
s ho
упо мя
части ц</w>
воз ро
ос наб
ка шенко</w>
пу сть</w>
введ ение</w>
в ент
НА ТО</w>
рей тер</w>
семь я</w>
ду ар
A gen
высо кий</w>
вет ра</w>
зуб овский</w>
суб си
анд ре
Рез уль
посо л</w>
при был</w>
вза им
прос ил</w>
к ового</w>
пл </w>
собствен ные</w>
ки ргизии</w>
екат ерина</w>
распростран ения</w>
стал ки
