{
    "/unc": 0,
    "/eos": 1,
    "/hint": 2,
    "/sys": 3,
    "/cv": 4,
    "/user": 5,
    "/model": 6,
    "0": 7,
    "00": 8,
    "0000": 9,
    "000</w>": 10,
    "00</w>": 11,
    "01</w>": 12,
    "02</w>": 13,
    "03</w>": 14,
    "04</w>": 15,
    "05</w>": 16,
    "06</w>": 17,
    "07</w>": 18,
    "08</w>": 19,
    "09</w>": 20,
    "0</w>": 21,
    "0px</w>": 22,
    "1": 23,
    "10": 24,
    "100": 25,
    "1000</w>": 26,
    "100</w>": 27,
    "102": 28,
    "10</w>": 29,
    "11": 30,
    "110": 31,
    "110</w>": 32,
    "11</w>": 33,
    "12": 34,
    "120": 35,
    "120</w>": 36,
    "12</w>": 37,
    "13": 38,
    "130</w>": 39,
    "13</w>": 40,
    "14": 41,
    "14</w>": 42,
    "15": 43,
    "150</w>": 44,
    "153</w>": 45,
    "15</w>": 46,
    "16": 47,
    "16</w>": 48,
    "17": 49,
    "17</w>": 50,
    "18": 51,
    "180</w>": 52,
    "18</w>": 53,
    "19": 54,
    "197": 55,
    "198": 56,
    "198</w>": 57,
    "199": 58,
    "1990</w>": 59,
    "1991</w>": 60,
    "1992</w>": 61,
    "1993</w>": 62,
    "1994</w>": 63,
    "1995</w>": 64,
    "1996</w>": 65,
    "1997</w>": 66,
    "1998</w>": 67,
    "1999</w>": 68,
    "19</w>": 69,
    "1</w>": 70,
    "1prime</w>": 71,
    "2": 72,
    "20": 73,
    "200": 74,
    "2000</w>": 75,
    "2001</w>": 76,
    "2002</w>": 77,
    "2003</w>": 78,
    "2004</w>": 79,
    "2005</w>": 80,
    "2006</w>": 81,
    "2007</w>": 82,
    "2008</w>": 83,
    "2009</w>": 84,
    "200</w>": 85,
    "201": 86,
    "2010": 87,
    "20100": 88,
    "2010</w>": 89,
    "20110": 90,
    "20111": 91,
    "2011</w>": 92,
    "2012": 93,
    "20120": 94,
    "2012</w>": 95,
    "2013": 96,
    "20130": 97,
    "2013</w>": 98,
    "20140": 99,
    "2014</w>": 100,
    "2015</w>": 101,
    "2016</w>": 102,
    "2017</w>": 103,
    "2018</w>": 104,
    "2020</w>": 105,
    "20</w>": 106,
    "21": 107,
    "210": 108,
    "217</w>": 109,
    "21</w>": 110,
    "22": 111,
    "22</w>": 112,
    "23": 113,
    "23</w>": 114,
    "24": 115,
    "24</w>": 116,
    "25": 117,
    "250</w>": 118,
    "25</w>": 119,
    "26": 120,
    "26</w>": 121,
    "27": 122,
    "272</w>": 123,
    "27</w>": 124,
    "28": 125,
    "28</w>": 126,
    "29": 127,
    "29</w>": 128,
    "2</w>": 129,
    "3": 130,
    "30": 131,
    "300</w>": 132,
    "30</w>": 133,
    "31</w>": 134,
    "32": 135,
    "32</w>": 136,
    "33": 137,
    "33</w>": 138,
    "34": 139,
    "34</w>": 140,
    "35": 141,
    "350</w>": 142,
    "35</w>": 143,
    "36": 144,
    "360</w>": 145,
    "36</w>": 146,
    "37": 147,
    "37</w>": 148,
    "38": 149,
    "38</w>": 150,
    "39": 151,
    "39</w>": 152,
    "3</w>": 153,
    "3D</w>": 154,
    "4": 155,
    "40": 156,
    "400</w>": 157,
    "40</w>": 158,
    "41</w>": 159,
    "42</w>": 160,
    "43</w>": 161,
    "44": 162,
    "44</w>": 163,
    "45": 164,
    "45</w>": 165,
    "46": 166,
    "46</w>": 167,
    "47": 168,
    "47</w>": 169,
    "48": 170,
    "48</w>": 171,
    "49": 172,
    "495</w>": 173,
    "49</w>": 174,
    "4</w>": 175,
    "5": 176,
    "50": 177,
    "500</w>": 178,
    "50</w>": 179,
    "51</w>": 180,
    "52</w>": 181,
    "53</w>": 182,
    "54</w>": 183,
    "55": 184,
    "55</w>": 185,
    "56</w>": 186,
    "57": 187,
    "57</w>": 188,
    "58": 189,
    "58</w>": 190,
    "59</w>": 191,
    "5</w>": 192,
    "6": 193,
    "60": 194,
    "600</w>": 195,
    "60</w>": 196,
    "61</w>": 197,
    "62</w>": 198,
    "63</w>": 199,
    "64": 200,
    "645</w>": 201,
    "64</w>": 202,
    "65": 203,
    "65</w>": 204,
    "66": 205,
    "66</w>": 206,
    "67": 207,
    "67</w>": 208,
    "68": 209,
    "68</w>": 210,
    "69": 211,
    "69</w>": 212,
    "6</w>": 213,
    "7": 214,
    "70": 215,
    "700</w>": 216,
    "70</w>": 217,
    "71</w>": 218,
    "72</w>": 219,
    "73</w>": 220,
    "74": 221,
    "74</w>": 222,
    "75": 223,
    "75</w>": 224,
    "76": 225,
    "76</w>": 226,
    "77": 227,
    "77</w>": 228,
    "78": 229,
    "78</w>": 230,
    "79</w>": 231,
    "7</w>": 232,
    "8": 233,
    "80": 234,
    "800</w>": 235,
    "80</w>": 236,
    "81</w>": 237,
    "82</w>": 238,
    "83</w>": 239,
    "84</w>": 240,
    "85": 241,
    "85</w>": 242,
    "86</w>": 243,
    "87</w>": 244,
    "88": 245,
    "88</w>": 246,
    "89</w>": 247,
    "8</w>": 248,
    "9": 249,
    "90": 250,
    "90</w>": 251,
    "91</w>": 252,
    "92": 253,
    "92</w>": 254,
    "93": 255,
    "93</w>": 256,
    "94": 257,
    "94</w>": 258,
    "95": 259,
    "95</w>": 260,
    "96": 261,
    "96</w>": 262,
    "97": 263,
    "97</w>": 264,
    "98": 265,
    "98</w>": 266,
    "99": 267,
    "995": 268,
    "99</w>": 269,
    "9</w>": 270,
    "</w>": 271,
    "A": 272,
    "A</w>": 273,
    "AF": 274,
    "AFP</w>": 275,
    "AI</w>": 276,
    "AP": 277,
    "API</w>": 278,
    "AS": 279,
    "Agen": 280,
    "Air": 281,
    "Al": 282,
    "An": 283,
    "Ap": 284,
    "Apple</w>": 285,
    "Ar": 286,
    "Ass": 287,
    "Associ": 288,
    "Associated</w>": 289,
    "B": 290,
    "B</w>": 291,
    "BBC</w>": 292,
    "BC</w>": 293,
    "Bo": 294,
    "C": 295,
    "C</w>": 296,
    "Ch": 297,
    "Co": 298,
    "Com": 299,
    "Con": 300,
    "D": 301,
    "D</w>": 302,
    "De": 303,
    "Di": 304,
    "E": 305,
    "E</w>": 306,
    "En": 307,
    "Ex": 308,
    "F": 309,
    "F</w>": 310,
    "Facebook</w>": 311,
    "France</w>": 312,
    "G": 313,
    "G</w>": 314,
    "GP": 315,
    "GPT</w>": 316,
    "Google</w>": 317,
    "Gro": 318,
    "H": 319,
    "H</w>": 320,
    "I": 321,
    "I</w>": 322,
    "II</w>": 323,
    "In": 324,
    "J": 325,
    "Jo": 326,
    "K": 327,
    "K</w>": 328,
    "L": 329,
    "L</w>": 330,
    "LL": 331,
    "LLM</w>": 332,
    "Le": 333,
    "Li": 334,
    "Lo": 335,
    "M": 336,
    "M</w>": 337,
    "ML</w>": 338,
    "Ma": 339,
    "Mar": 340,
    "Me": 341,
    "Microsoft</w>": 342,
    "Mo": 343,
    "N": 344,
    "N</w>": 345,
    "NN</w>": 346,
    "Ne": 347,
    "New</w>": 348,
    "News</w>": 349,
    "No": 350,
    "O": 351,
    "O</w>": 352,
    "OS</w>": 353,
    "Open": 354,
    "P": 355,
    "P</w>": 356,
    "Ph": 357,
    "Po": 358,
    "Pre": 359,
    "Press</w>": 360,
    "Pro": 361,
    "Py": 362,
    "Python</w>": 363,
    "Q": 364,
    "R": 365,
    "R</w>": 366,
    "Re": 367,
    "Reuters</w>": 368,
    "Ro": 369,
    "S": 370,
    "S</w>": 371,
    "Sp": 372,
    "St": 373,
    "T": 374,
    "T</w>": 375,
    "Te": 376,
    "Tele": 377,
    "The</w>": 378,
    "Tim": 379,
    "Times</w>": 380,
    "To": 381,
    "Twitter</w>": 382,
    "U": 383,
    "U</w>": 384,
    "Un": 385,
    "V": 386,
    "V</w>": 387,
    "W": 388,
    "Wor": 389,
    "X": 390,
    "X</w>": 391,
    "Y": 392,
    "You": 393,
    "Z": 394,
    "a": 395,
    "a</w>": 396,
    "ab": 397,
    "ab</w>": 398,
    "ac": 399,
    "acc": 400,
    "accredi": 401,
    "ace</w>": 402,
    "aceb": 403,
    "acebook</w>": 404,
    "ack": 405,
    "ack</w>": 406,
    "ad": 407,
    "ad</w>": 408,
    "af": 409,
    "ag": 410,
    "age": 411,
    "age</w>": 412,
    "ages</w>": 413,
    "ai": 414,
    "ail</w>": 415,
    "aily</w>": 416,
    "ak": 417,
    "al": 418,
    "al</w>": 419,
    "ali": 420,
    "alig": 421,
    "align</w>": 422,
    "all</w>": 423,
    "alt</w>": 424,
    "aly": 425,
    "am": 426,
    "am</w>": 427,
    "ame</w>": 428,
    "amil": 429,
    "amily</w>": 430,
    "amp</w>": 431,
    "an": 432,
    "an</w>": 433,
    "ance</w>": 434,
    "and": 435,
    "and</w>": 436,
    "ang": 437,
    "ank</w>": 438,
    "ans</w>": 439,
    "ant</w>": 440,
    "ap": 441,
    "apple</w>": 442,
    "ar": 443,
    "ar</w>": 444,
    "arab</w>": 445,
    "ard</w>": 446,
    "ari": 447,
    "artic": 448,
    "article</w>": 449,
    "as": 450,
    "as</w>": 451,
    "ash</w>": 452,
    "ass</w>": 453,
    "at": 454,
    "at</w>": 455,
    "ata</w>": 456,
    "ate</w>": 457,
    "ated</w>": 458,
    "ation": 459,
    "ation</w>": 460,
    "ational</w>": 461,
    "au": 462,
    "av": 463,
    "ay": 464,
    "ay</w>": 465,
    "az": 466,
    "b": 467,
    "b</w>": 468,
    "ball</w>": 469,
    "bas": 470,
    "be": 471,
    "be</w>": 472,
    "ber": 473,
    "berg</w>": 474,
    "bi": 475,
    "bl": 476,
    "blank</w>": 477,
    "ble</w>": 478,
    "bo": 479,
    "bor": 480,
    "border</w>": 481,
    "br</w>": 482,
    "bs": 483,
    "bsp</w>": 484,
    "bul": 485,
    "c": 486,
    "c</w>": 487,
    "ce": 488,
    "ce</w>": 489,
    "ch": 490,
    "ch</w>": 491,
    "ci": 492,
    "cl": 493,
    "class</w>": 494,
    "cms</w>": 495,
    "co": 496,
    "co</w>": 497,
    "col": 498,
    "color</w>": 499,
    "com": 500,
    "com</w>": 501,
    "con": 502,
    "cult": 503,
    "culture</w>": 504,
    "d": 505,
    "d0</w>": 506,
    "d1</w>": 507,
    "d</w>": 508,
    "da": 509,
    "da</w>": 510,
    "dash</w>": 511,
    "de": 512,
    "de</w>": 513,
    "den</w>": 514,
    "der": 515,
    "der</w>": 516,
    "descri": 517,
    "description</w>": 518,
    "dex</w>": 519,
    "di": 520,
    "dia</w>": 521,
    "ding</w>": 522,
    "div</w>": 523,
    "do": 524,
    "do</w>": 525,
    "doc": 526,
    "ds</w>": 527,
    "du": 528,
    "e": 529,
    "e</w>": 530,
    "eb": 531,
    "ec": 532,
    "econ": 533,
    "econom": 534,
    "economy</w>": 535,
    "ed</w>": 536,
    "ee": 537,
    "eing</w>": 538,
    "el": 539,
    "el</w>": 540,
    "em": 541,
    "em</w>": 542,
    "en": 543,
    "en</w>": 544,
    "ence</w>": 545,
    "end</w>": 546,
    "ent": 547,
    "ent</w>": 548,
    "ents</w>": 549,
    "er": 550,
    "er</w>": 551,
    "ers</w>": 552,
    "es</w>": 553,
    "et": 554,
    "et</w>": 555,
    "ety</w>": 556,
    "ev": 557,
    "ex": 558,
    "f": 559,
    "f</w>": 560,
    "facebook</w>": 561,
    "fal": 562,
    "false</w>": 563,
    "family</w>": 564,
    "fe": 565,
    "fen": 566,
    "ff": 567,
    "ff</w>": 568,
    "fi": 569,
    "fika</w>": 570,
    "file</w>": 571,
    "flo": 572,
    "float</w>": 573,
    "fo": 574,
    "font</w>": 575,
    "for": 576,
    "for</w>": 577,
    "fre": 578,
    "free</w>": 579,
    "ft</w>": 580,
    "g": 581,
    "g</w>": 582,
    "ge": 583,
    "ge</w>": 584,
    "gen": 585,
    "get</w>": 586,
    "gh": 587,
    "ght</w>": 588,
    "gi": 589,
    "gif</w>": 590,
    "gin</w>": 591,
    "gle</w>": 592,
    "go": 593,
    "google</w>": 594,
    "gra": 595,
    "gram</w>": 596,
    "gre": 597,
    "gro": 598,
    "group</w>": 599,
    "gt</w>": 600,
    "gu": 601,
    "gy</w>": 602,
    "h": 603,
    "h3</w>": 604,
    "h</w>": 605,
    "ha": 606,
    "he": 607,
    "he</w>": 608,
    "height</w>": 609,
    "hel": 610,
    "hellip</w>": 611,
    "her": 612,
    "hi": 613,
    "ho": 614,
    "host</w>": 615,
    "hre": 616,
    "href</w>": 617,
    "hspace</w>": 618,
    "ht": 619,
    "htm": 620,
    "html</w>": 621,
    "htt": 622,
    "http</w>": 623,
    "https</w>": 624,
    "i": 625,
    "i</w>": 626,
    "ia</w>": 627,
    "ic": 628,
    "ic</w>": 629,
    "ice</w>": 630,
    "icon</w>": 631,
    "icro": 632,
    "icrosoft</w>": 633,
    "id": 634,
    "id</w>": 635,
    "ide": 636,
    "ig": 637,
    "ight</w>": 638,
    "ii</w>": 639,
    "il": 640,
    "il</w>": 641,
    "im": 642,
    "images</w>": 643,
    "img</w>": 644,
    "in": 645,
    "in</w>": 646,
    "ina</w>": 647,
    "inc": 648,
    "incid": 649,
    "incidents</w>": 650,
    "index</w>": 651,
    "indo": 652,
    "indows</w>": 653,
    "ine": 654,
    "ine</w>": 655,
    "info": 656,
    "infogra": 657,
    "infografika</w>": 658,
    "ing": 659,
    "ing</w>": 660,
    "inher": 661,
    "inherit</w>": 662,
    "injec": 663,
    "inject</w>": 664,
    "injection</w>": 665,
    "inter": 666,
    "ip": 667,
    "ir": 668,
    "is": 669,
    "is</w>": 670,
    "it": 671,
    "it</w>": 672,
    "ite</w>": 673,
    "ity</w>": 674,
    "j": 675,
    "j</w>": 676,
    "jec": 677,
    "jo": 678,
    "jp": 679,
    "jpg</w>": 680,
    "json</w>": 681,
    "ju": 682,
    "k": 683,
    "k</w>": 684,
    "ka</w>": 685,
    "ke": 686,
    "ke</w>": 687,
    "ker</w>": 688,
    "ki": 689,
    "ko": 690,
    "ks</w>": 691,
    "l": 692,
    "l</w>": 693,
    "la": 694,
    "la</w>": 695,
    "laquo</w>": 696,
    "lay": 697,
    "ld</w>": 698,
    "le": 699,
    "le</w>": 700,
    "left</w>": 701,
    "les</w>": 702,
    "let</w>": 703,
    "li": 704,
    "li</w>": 705,
    "lin": 706,
    "line</w>": 707,
    "lip</w>": 708,
    "lo": 709,
    "loc": 710,
    "ls</w>": 711,
    "lt</w>": 712,
    "lu": 713,
    "ly</w>": 714,
    "m": 715,
    "m</w>": 716,
    "ma": 717,
    "mail</w>": 718,
    "man</w>": 719,
    "mar": 720,
    "margin</w>": 721,
    "marker</w>": 722,
    "mce</w>": 723,
    "mdash</w>": 724,
    "me": 725,
    "me</w>": 726,
    "media</w>": 727,
    "ment</w>": 728,
    "mer": 729,
    "mes</w>": 730,
    "mi": 731,
    "mo": 732,
    "mosco": 733,
    "moscow</w>": 734,
    "ms": 735,
    "ms</w>": 736,
    "msg": 737,
    "msgtext</w>": 738,
    "n": 739,
    "n</w>": 740,
    "national</w>": 741,
    "nbsp</w>": 742,
    "ndash</w>": 743,
    "ne": 744,
    "net</w>": 745,
    "news</w>": 746,
    "ng</w>": 747,
    "ni": 748,
    "no": 749,
    "none</w>": 750,
    "nor": 751,
    "o": 752,
    "o</w>": 753,
    "oc": 754,
    "oci": 755,
    "of</w>": 756,
    "ol": 757,
    "om": 758,
    "on": 759,
    "on</w>": 760,
    "one</w>": 761,
    "ong</w>": 762,
    "ont</w>": 763,
    "oo": 764,
    "oogle</w>": 765,
    "ook</w>": 766,
    "oot": 767,
    "op": 768,
    "or": 769,
    "or</w>": 770,
    "ore</w>": 771,
    "org</w>": 772,
    "ori": 773,
    "ort</w>": 774,
    "ory</w>": 775,
    "ot</w>": 776,
    "ou": 777,
    "p": 778,
    "p</w>": 779,
    "par": 780,
    "pe": 781,
    "pe</w>": 782,
    "pen": 783,
    "per": 784,
    "ph": 785,
    "pho": 786,
    "photol": 787,
    "photolents</w>": 788,
    "pi": 789,
    "pl": 790,
    "ple</w>": 791,
    "po": 792,
    "poli": 793,
    "politics</w>": 794,
    "por": 795,
    "porter</w>": 796,
    "pre": 797,
    "press</w>": 798,
    "pri": 799,
    "prime</w>": 800,
    "pro": 801,
    "ps</w>": 802,
    "pt</w>": 803,
    "ption</w>": 804,
    "pu": 805,
    "px</w>": 806,
    "py": 807,
    "py</w>": 808,
    "q": 809,
    "q</w>": 810,
    "qu": 811,
    "que": 812,
    "quo": 813,
    "quo</w>": 814,
    "quot</w>": 815,
    "quote": 816,
    "quote2</w>": 817,
    "quote3</w>": 818,
    "r": 819,
    "r</w>": 820,
    "ra": 821,
    "ran": 822,
    "rance</w>": 823,
    "raquo</w>": 824,
    "rav": 825,
    "re": 826,
    "re</w>": 827,
    "redi": 828,
    "ren": 829,
    "ri": 830,
    "ria</w>": 831,
    "rian</w>": 832,
    "right</w>": 833,
    "ro": 834,
    "rsport</w>": 835,
    "ru": 836,
    "ru</w>": 837,
    "russi": 838,
    "russia</w>": 839,
    "s": 840,
    "s</w>": 841,
    "sc": 842,
    "sci": 843,
    "science</w>": 844,
    "sco": 845,
    "scri": 846,
    "se": 847,
    "se</w>": 848,
    "ser": 849,
    "sh": 850,
    "sho": 851,
    "si": 852,
    "sion</w>": 853,
    "size</w>": 854,
    "sk": 855,
    "sk</w>": 856,
    "sm": 857,
    "so": 858,
    "soci": 859,
    "society</w>": 860,
    "soft</w>": 861,
    "son</w>": 862,
    "sp": 863,
    "space</w>": 864,
    "span</w>": 865,
    "spb</w>": 866,
    "sport</w>": 867,
    "sprav": 868,
    "spravka</w>": 869,
    "sr": 870,
    "src</w>": 871,
    "ss": 872,
    "ss</w>": 873,
    "sse</w>": 874,
    "ssi": 875,
    "st": 876,
    "st</w>": 877,
    "stat</w>": 878,
    "sti": 879,
    "str": 880,
    "strong</w>": 881,
    "sty": 882,
    "style</w>": 883,
    "su": 884,
    "sy": 885,
    "t": 886,
    "t</w>": 887,
    "ta": 888,
    "ta</w>": 889,
    "tag</w>": 890,
    "tal</w>": 891,
    "tar": 892,
    "target</w>": 893,
    "tation</w>": 894,
    "td</w>": 895,
    "te": 896,
    "te</w>": 897,
    "ted</w>": 898,
    "tel</w>": 899,
    "ten": 900,
    "ter": 901,
    "ter</w>": 902,
    "text</w>": 903,
    "th": 904,
    "th</w>": 905,
    "the": 906,
    "the</w>": 907,
    "thon</w>": 908,
    "ti": 909,
    "tic": 910,
    "tics</w>": 911,
    "tion": 912,
    "tion</w>": 913,
    "tions</w>": 914,
    "title</w>": 915,
    "tle</w>": 916,
    "to": 917,
    "to</w>": 918,
    "tol": 919,
    "ton</w>": 920,
    "top</w>": 921,
    "tr": 922,
    "tra": 923,
    "tren": 924,
    "trend</w>": 925,
    "ts</w>": 926,
    "tv</w>": 927,
    "twitter</w>": 928,
    "ty": 929,
    "ty</w>": 930,
    "type</w>": 931,
    "u": 932,
    "u</w>": 933,
    "ub": 934,
    "ub</w>": 935,
    "ube</w>": 936,
    "uc": 937,
    "ug": 938,
    "ul": 939,
    "ult": 940,
    "um": 941,
    "um</w>": 942,
    "un": 943,
    "und</w>": 944,
    "up</w>": 945,
    "ur": 946,
    "ure</w>": 947,
    "url</w>": 948,
    "urn": 949,
    "urnal</w>": 950,
    "uro": 951,
    "us": 952,
    "us</w>": 953,
    "ut": 954,
    "uters</w>": 955,
    "v": 956,
    "v</w>": 957,
    "va</w>": 958,
    "vari": 959,
    "variant</w>": 960,
    "ve": 961,
    "ve</w>": 962,
    "ver": 963,
    "ver</w>": 964,
    "vest": 965,
    "vi": 966,
    "vie": 967,
    "vo": 968,
    "w": 969,
    "w</w>": 970,
    "war": 971,
    "we": 972,
    "wee": 973,
    "wh": 974,
    "wi": 975,
    "wid": 976,
    "width</w>": 977,
    "wit": 978,
    "witter</w>": 979,
    "wor": 980,
    "world</w>": 981,
    "ws</w>": 982,
    "ww": 983,
    "www</w>": 984,
    "x": 985,
    "x</w>": 986,
    "xi": 987,
    "xt</w>": 988,
    "y": 989,
    "y</w>": 990,
    "yo": 991,
    "you": 992,
    "z": 993,
    "z</w>": 994,
    "ze</w>": 995,
    "Ё": 996,
    "А": 997,
    "А</w>": 998,
    "АО</w>": 999,
    "Аб": 1000,
    "Ав": 1001,
    "Ак": 1002,
    "Ал": 1003,
    "Алек": 1004,
    "Александ": 1005,
    "Александр</w>": 1006,
    "Александра</w>": 1007,
    "Алексей</w>": 1008,
    "Аль": 1009,
    "Аль</w>": 1010,
    "Американ": 1011,
    "Ан": 1012,
    "Анг": 1013,
    "Анд": 1014,
    "Андрей</w>": 1015,
    "Ар": 1016,
    "Аф": 1017,
    "Б": 1018,
    "Б</w>": 1019,
    "Ба": 1020,
    "Бан": 1021,
    "Бар": 1022,
    "Бе": 1023,
    "Без": 1024,
    "Бел": 1025,
    "Белору": 1026,
    "Белоруссии</w>": 1027,
    "Бер": 1028,
    "Бо": 1029,
    "Более</w>": 1030,
    "Боль": 1031,
    "Бу": 1032,
    "Буд": 1033,
    "Буш": 1034,
    "Бы": 1035,
    "В": 1036,
    "В</w>": 1037,
    "ВВ": 1038,
    "ВВС</w>": 1039,
    "ВД</w>": 1040,
    "Ва": 1041,
    "Вал": 1042,
    "Вашинг": 1043,
    "Ве": 1044,
    "Вели": 1045,
    "Великобритании</w>": 1046,
    "Вен": 1047,
    "Вер": 1048,
    "Верхов": 1049,
    "Ви": 1050,
    "Виктор</w>": 1051,
    "Вла": 1052,
    "Владими": 1053,
    "Владимир</w>": 1054,
    "Владимира</w>": 1055,
    "Вместе</w>": 1056,
    "Во": 1057,
    "Во</w>": 1058,
    "Воз": 1059,
    "Вол": 1060,
    "Восто": 1061,
    "Вот</w>": 1062,
    "Все": 1063,
    "Все</w>": 1064,
    "Всего</w>": 1065,
    "Вто": 1066,
    "Вы": 1067,
    "Вы</w>": 1068,
    "Г": 1069,
    "Г</w>": 1070,
    "Га": 1071,
    "Газ": 1072,
    "Газпро": 1073,
    "Ге": 1074,
    "Ген": 1075,
    "Гер": 1076,
    "Германии</w>": 1077,
    "Глав": 1078,
    "Глава</w>": 1079,
    "Го": 1080,
    "Гор": 1081,
    "Гос": 1082,
    "Госдумы</w>": 1083,
    "Гра": 1084,
    "Гре": 1085,
    "Гру": 1086,
    "Грузии</w>": 1087,
    "Гу": 1088,
    "Д": 1089,
    "Д</w>": 1090,
    "Да": 1091,
    "Да</w>": 1092,
    "Дав": 1093,
    "Дал": 1094,
    "Де": 1095,
    "Дж": 1096,
    "Ди": 1097,
    "Для</w>": 1098,
    "Дмит": 1099,
    "Дмитрий</w>": 1100,
    "До": 1101,
    "До</w>": 1102,
    "Дон": 1103,
    "Дру": 1104,
    "Ду": 1105,
    "Дэ": 1106,
    "Е": 1107,
    "Е</w>": 1108,
    "ЕС</w>": 1109,
    "Ев": 1110,
    "Евг": 1111,
    "Евро": 1112,
    "Европы</w>": 1113,
    "Его</w>": 1114,
    "Еди": 1115,
    "Если</w>": 1116,
    "Есть</w>": 1117,
    "Еще</w>": 1118,
    "Ж": 1119,
    "З": 1120,
    "З</w>": 1121,
    "За": 1122,
    "За</w>": 1123,
    "Зат": 1124,
    "Затем</w>": 1125,
    "Здесь</w>": 1126,
    "Зем": 1127,
    "Земли</w>": 1128,
    "И": 1129,
    "И</w>": 1130,
    "ИА</w>": 1131,
    "ИИ</w>": 1132,
    "ИТА": 1133,
    "ИТАР</w>": 1134,
    "Иг": 1135,
    "Игор": 1136,
    "Из": 1137,
    "Из</w>": 1138,
    "Изра": 1139,
    "Израиля</w>": 1140,
    "Именно</w>": 1141,
    "Ин": 1142,
    "Интер": 1143,
    "Интерфак": 1144,
    "Интерфакс</w>": 1145,
    "Ира": 1146,
    "Ис": 1147,
    "Исп": 1148,
    "Исто": 1149,
    "Итали": 1150,
    "Их</w>": 1151,
    "Й": 1152,
    "Йор": 1153,
    "К": 1154,
    "К</w>": 1155,
    "КН": 1156,
    "КО": 1157,
    "КС</w>": 1158,
    "Ка": 1159,
    "Кажд": 1160,
    "Как</w>": 1161,
    "Кали": 1162,
    "Кан": 1163,
    "Кар": 1164,
    "Ки": 1165,
    "Кит": 1166,
    "Кита": 1167,
    "Ко": 1168,
    "Когда</w>": 1169,
    "Ком": 1170,
    "Коммер": 1171,
    "Коммерсан": 1172,
    "Коммерсант</w>": 1173,
    "Комп": 1174,
    "Компания</w>": 1175,
    "Кон": 1176,
    "Кор": 1177,
    "Крас": 1178,
    "Красно": 1179,
    "Кри": 1180,
    "Кроме</w>": 1181,
    "Кры": 1182,
    "Ку": 1183,
    "Кур": 1184,
    "Л": 1185,
    "Л</w>": 1186,
    "Ла": 1187,
    "Ле": 1188,
    "Ленты</w>": 1189,
    "Ли": 1190,
    "Лит": 1191,
    "Ло": 1192,
    "Лон": 1193,
    "Лондо": 1194,
    "Лу": 1195,
    "Лю": 1196,
    "М": 1197,
    "М</w>": 1198,
    "МВД</w>": 1199,
    "МИ": 1200,
    "МИД</w>": 1201,
    "МЧС</w>": 1202,
    "Ма": 1203,
    "Май": 1204,
    "Мак": 1205,
    "Мал": 1206,
    "Ман": 1207,
    "Мар": 1208,
    "Мари": 1209,
    "Мат": 1210,
    "Ме": 1211,
    "Мед": 1212,
    "Медвед": 1213,
    "Межд": 1214,
    "Между</w>": 1215,
    "Международ": 1216,
    "Мен": 1217,
    "Ми": 1218,
    "Мил": 1219,
    "Мин": 1220,
    "Мини": 1221,
    "Министер": 1222,
    "Мино": 1223,
    "Миха": 1224,
    "Михаил</w>": 1225,
    "Мне</w>": 1226,
    "Мно": 1227,
    "Мо": 1228,
    "Мод": 1229,
    "Мож": 1230,
    "Можно</w>": 1231,
    "Моск": 1232,
    "Москва</w>": 1233,
    "Москве</w>": 1234,
    "Москвы</w>": 1235,
    "Му": 1236,
    "Мы</w>": 1237,
    "Н": 1238,
    "Н</w>": 1239,
    "НА": 1240,
    "НАТО</w>": 1241,
    "НК</w>": 1242,
    "На": 1243,
    "На</w>": 1244,
    "Напомним</w>": 1245,
    "Например</w>": 1246,
    "Национ": 1247,
    "Не": 1248,
    "Не</w>": 1249,
    "Несмотря</w>": 1250,
    "Ни": 1251,
    "Никола": 1252,
    "Но</w>": 1253,
    "Ново": 1254,
    "Новости</w>": 1255,
    "Нор": 1256,
    "Ну</w>": 1257,
    "Нью</w>": 1258,
    "О": 1259,
    "О</w>": 1260,
    "ОО": 1261,
    "ООН</w>": 1262,
    "Об": 1263,
    "Об</w>": 1264,
    "Оба": 1265,
    "Объ": 1266,
    "Од": 1267,
    "Один</w>": 1268,
    "Однако</w>": 1269,
    "Оле": 1270,
    "Олимпи": 1271,
    "Он</w>": 1272,
    "Она</w>": 1273,
    "Они</w>": 1274,
    "Ос": 1275,
    "Основ": 1276,
    "От": 1277,
    "Офи": 1278,
    "П": 1279,
    "П</w>": 1280,
    "Па": 1281,
    "Пав": 1282,
    "Пар": 1283,
    "Пе": 1284,
    "Пен": 1285,
    "Пер": 1286,
    "Первый</w>": 1287,
    "Пере": 1288,
    "Пет": 1289,
    "Петербур": 1290,
    "Петербурге</w>": 1291,
    "Пи": 1292,
    "По": 1293,
    "По</w>": 1294,
    "Под": 1295,
    "Пока</w>": 1296,
    "Пол": 1297,
    "Поль": 1298,
    "Помимо</w>": 1299,
    "Пор": 1300,
    "После</w>": 1301,
    "Послед": 1302,
    "Поэтому</w>": 1303,
    "Прав": 1304,
    "Пре": 1305,
    "Пред": 1306,
    "Представ": 1307,
    "Представители</w>": 1308,
    "Прези": 1309,
    "Президент</w>": 1310,
    "При": 1311,
    "При</w>": 1312,
    "Про": 1313,
    "Пу": 1314,
    "Пут": 1315,
    "Путин</w>": 1316,
    "Путина</w>": 1317,
    "Р": 1318,
    "Р</w>": 1319,
    "РИА</w>": 1320,
    "РФ</w>": 1321,
    "Ра": 1322,
    "Раб": 1323,
    "Раз": 1324,
    "Ран": 1325,
    "Ранее</w>": 1326,
    "Рас": 1327,
    "Ре": 1328,
    "Рез": 1329,
    "Резуль": 1330,
    "Рес": 1331,
    "Республи": 1332,
    "Ри": 1333,
    "Ро": 1334,
    "Рос": 1335,
    "Росси": 1336,
    "Россией</w>": 1337,
    "России</w>": 1338,
    "Россию</w>": 1339,
    "Россия</w>": 1340,
    "Ру": 1341,
    "Рус": 1342,
    "С": 1343,
    "С</w>": 1344,
    "СК": 1345,
    "СМ": 1346,
    "СМИ</w>": 1347,
    "СР</w>": 1348,
    "СС": 1349,
    "СС</w>": 1350,
    "СШ": 1351,
    "США</w>": 1352,
    "Са": 1353,
    "Сам</w>": 1354,
    "Сан": 1355,
    "Санкт</w>": 1356,
    "Св": 1357,
    "Се": 1358,
    "Север": 1359,
    "Сегод": 1360,
    "Сей": 1361,
    "Сейчас</w>": 1362,
    "Сер": 1363,
    "Сергей</w>": 1364,
    "Си": 1365,
    "Сирии</w>": 1366,
    "След": 1367,
    "Со": 1368,
    "Сов": 1369,
    "Согласно</w>": 1370,
    "Сол": 1371,
    "Сообщ": 1372,
    "Сот": 1373,
    "Сою": 1374,
    "Спе": 1375,
    "Сред": 1376,
    "Среди</w>": 1377,
    "Ст": 1378,
    "Сто": 1379,
    "Су": 1380,
    "Суд": 1381,
    "Т": 1382,
    "Т</w>": 1383,
    "ТА": 1384,
    "ТАСС</w>": 1385,
    "ТВ</w>": 1386,
    "ТО</w>": 1387,
    "ТС</w>": 1388,
    "Та": 1389,
    "Так": 1390,
    "Так</w>": 1391,
    "Также</w>": 1392,
    "Таким</w>": 1393,
    "Там</w>": 1394,
    "Те": 1395,
    "Тем</w>": 1396,
    "Теперь</w>": 1397,
    "Ти": 1398,
    "То": 1399,
    "То</w>": 1400,
    "Тогда</w>": 1401,
    "Трам": 1402,
    "Тур": 1403,
    "Турции</w>": 1404,
    "Ты</w>": 1405,
    "У": 1406,
    "У</w>": 1407,
    "УК</w>": 1408,
    "Укра": 1409,
    "Украина</w>": 1410,
    "Украине</w>": 1411,
    "Украины</w>": 1412,
    "Ф": 1413,
    "Ф</w>": 1414,
    "ФС": 1415,
    "ФСБ</w>": 1416,
    "Федера": 1417,
    "Федераль": 1418,
    "Федерации</w>": 1419,
    "Фин": 1420,
    "Фор": 1421,
    "Фран": 1422,
    "Франции</w>": 1423,
    "Х": 1424,
    "Ха": 1425,
    "Хот": 1426,
    "Хотя</w>": 1427,
    "Ху": 1428,
    "Ц": 1429,
    "Цент": 1430,
    "Ч": 1431,
    "ЧС</w>": 1432,
    "Ча": 1433,
    "Че": 1434,
    "Чел": 1435,
    "Чер": 1436,
    "Чеч": 1437,
    "Чи": 1438,
    "Что": 1439,
    "Что</w>": 1440,
    "Чтобы</w>": 1441,
    "Ш": 1442,
    "Ша": 1443,
    "Щ": 1444,
    "Ъ": 1445,
    "Ы": 1446,
    "Ь": 1447,
    "Э": 1448,
    "ЭС</w>": 1449,
    "Экс": 1450,
    "Эн": 1451,
    "Эта</w>": 1452,
    "Эти</w>": 1453,
    "Это</w>": 1454,
    "Этот</w>": 1455,
    "Ю": 1456,
    "Южной</w>": 1457,
    "Юрий</w>": 1458,
    "Я": 1459,
    "Я</w>": 1460,
    "Японии</w>": 1461,
    "а": 1462,
    "а</w>": 1463,
    "аб": 1464,
    "абил": 1465,
    "абри": 1466,
    "абсолю": 1467,
    "абсолютно</w>": 1468,
    "абх": 1469,
    "ав": 1470,
    "ав</w>": 1471,
    "ава": 1472,
    "авари": 1473,
    "аварии</w>": 1474,
    "аварий": 1475,
    "авария</w>": 1476,
    "авг</w>": 1477,
    "авгу": 1478,
    "августа</w>": 1479,
    "августе</w>": 1480,
    "ави": 1481,
    "авиа": 1482,
    "авиакомпании</w>": 1483,
    "авиации</w>": 1484,
    "авив</w>": 1485,
    "авли": 1486,
    "австрали": 1487,
    "авто": 1488,
    "автобу": 1489,
    "автобус</w>": 1490,
    "автобуса</w>": 1491,
    "автомат": 1492,
    "автомати": 1493,
    "автоматически</w>": 1494,
    "автомоб": 1495,
    "автомобил": 1496,
    "автомобилей</w>": 1497,
    "автомобиль": 1498,
    "автомобиль</w>": 1499,
    "автомобиля</w>": 1500,
    "автоно": 1501,
    "автоном": 1502,
    "автор": 1503,
    "автор</w>": 1504,
    "автора</w>": 1505,
    "авторов</w>": 1506,
    "авторы</w>": 1507,
    "авшего</w>": 1508,
    "авшие</w>": 1509,
    "авший</w>": 1510,
    "авших</w>": 1511,
    "аг": 1512,
    "агент": 1513,
    "агентства</w>": 1514,
    "агентство</w>": 1515,
    "агентству</w>": 1516,
    "аго": 1517,
    "агре": 1518,
    "ад": 1519,
    "ада": 1520,
    "ада</w>": 1521,
    "адап": 1522,
    "адво": 1523,
    "адвокат": 1524,
    "адвокат</w>": 1525,
    "аде</w>": 1526,
    "администра": 1527,
    "административ": 1528,
    "администрации</w>": 1529,
    "администрация</w>": 1530,
    "адре": 1531,
    "адрес": 1532,
    "адрес</w>": 1533,
    "адресу</w>": 1534,
    "ады": 1535,
    "ады</w>": 1536,
    "аем</w>": 1537,
    "ает</w>": 1538,
    "ается</w>": 1539,
    "аз": 1540,
    "азер": 1541,
    "азербайдж": 1542,
    "ази": 1543,
    "азиат": 1544,
    "азии</w>": 1545,
    "ай": 1546,
    "айте</w>": 1547,
    "ак": 1548,
    "ак</w>": 1549,
    "ака": 1550,
    "акаде": 1551,
    "академи": 1552,
    "академии</w>": 1553,
    "аки": 1554,
    "акка": 1555,
    "аккаун": 1556,
    "аккред": 1557,
    "аккредита": 1558,
    "аккредитация</w>": 1559,
    "акку": 1560,
    "акт": 1561,
    "актер</w>": 1562,
    "акти": 1563,
    "актив": 1564,
    "активи": 1565,
    "активно</w>": 1566,
    "активности</w>": 1567,
    "активов</w>": 1568,
    "акту": 1569,
    "акции</w>": 1570,
    "акций</w>": 1571,
    "акцион": 1572,
    "акционеров</w>": 1573,
    "акцию</w>": 1574,
    "акция</w>": 1575,
    "ал": 1576,
    "ал</w>": 1577,
    "ала": 1578,
    "ала</w>": 1579,
    "алась</w>": 1580,
    "алгорит": 1581,
    "алгоритм</w>": 1582,
    "але": 1583,
    "але</w>": 1584,
    "алей</w>": 1585,
    "алек": 1586,
    "александ": 1587,
    "александр</w>": 1588,
    "александра</w>": 1589,
    "алексе": 1590,
    "алексей</w>": 1591,
    "алексея</w>": 1592,
    "али": 1593,
    "али</w>": 1594,
    "ализ": 1595,
    "ализации</w>": 1596,
    "ализи": 1597,
    "ались</w>": 1598,
    "алко": 1599,
    "алкого": 1600,
    "алкоголь": 1601,
    "ало": 1602,
    "ало</w>": 1603,
    "алов</w>": 1604,
    "алом</w>": 1605,
    "алось</w>": 1606,
    "ался</w>": 1607,
    "алу</w>": 1608,
    "алы</w>": 1609,
    "аль": 1610,
    "аль</w>": 1611,
    "альбо": 1612,
    "альная</w>": 1613,
    "ально</w>": 1614,
    "ального</w>": 1615,
    "альное</w>": 1616,
    "альной</w>": 1617,
    "альном</w>": 1618,
    "альному</w>": 1619,
    "альную</w>": 1620,
    "альные</w>": 1621,
    "альный</w>": 1622,
    "альным</w>": 1623,
    "альными</w>": 1624,
    "альных</w>": 1625,
    "альтерна": 1626,
    "альтернатив": 1627,
    "алья</w>": 1628,
    "альян": 1629,
    "ам": 1630,
    "ам</w>": 1631,
    "амери": 1632,
    "американ": 1633,
    "американские</w>": 1634,
    "американский</w>": 1635,
    "американских</w>": 1636,
    "американского</w>": 1637,
    "американской</w>": 1638,
    "ами</w>": 1639,
    "амур": 1640,
    "ан": 1641,
    "ан</w>": 1642,
    "ана</w>": 1643,
    "анал": 1644,
    "анализ</w>": 1645,
    "анализа</w>": 1646,
    "анализи": 1647,
    "аналити": 1648,
    "аналитики</w>": 1649,
    "анало": 1650,
    "аналоги": 1651,
    "анато": 1652,
    "анатолий</w>": 1653,
    "анг": 1654,
    "ангель": 1655,
    "англи": 1656,
    "анд": 1657,
    "андре": 1658,
    "андрей</w>": 1659,
    "андрея</w>": 1660,
    "ане</w>": 1661,
    "ани": 1662,
    "ани</w>": 1663,
    "ание</w>": 1664,
    "анием</w>": 1665,
    "ании</w>": 1666,
    "аний</w>": 1667,
    "анима": 1668,
    "анина</w>": 1669,
    "анию</w>": 1670,
    "ания</w>": 1671,
    "аниям</w>": 1672,
    "аниями</w>": 1673,
    "аниях</w>": 1674,
    "анна</w>": 1675,
    "анная</w>": 1676,
    "анного</w>": 1677,
    "анное</w>": 1678,
    "анной</w>": 1679,
    "анном</w>": 1680,
    "анную</w>": 1681,
    "анные</w>": 1682,
    "анный</w>": 1683,
    "анным</w>": 1684,
    "анными</w>": 1685,
    "анных</w>": 1686,
    "ано": 1687,
    "ано</w>": 1688,
    "анов</w>": 1689,
    "анон": 1690,
    "анс</w>": 1691,
    "анской</w>": 1692,
    "ант": 1693,
    "анти": 1694,
    "аны</w>": 1695,
    "ао</w>": 1696,
    "ап": 1697,
    "апел": 1698,
    "апелля": 1699,
    "аппара": 1700,
    "аппарат": 1701,
    "аппарат</w>": 1702,
    "аппарата</w>": 1703,
    "апр</w>": 1704,
    "апре": 1705,
    "апреле</w>": 1706,
    "апреля</w>": 1707,
    "ар": 1708,
    "ар</w>": 1709,
    "ара</w>": 1710,
    "араб": 1711,
    "арбит": 1712,
    "арбитраж": 1713,
    "арбитражный</w>": 1714,
    "аргу": 1715,
    "аре": 1716,
    "арен": 1717,
    "арест</w>": 1718,
    "ареста</w>": 1719,
    "арестов": 1720,
    "арестован</w>": 1721,
    "ари": 1722,
    "арии</w>": 1723,
    "арил</w>": 1724,
    "арк": 1725,
    "арм": 1726,
    "армей": 1727,
    "армии</w>": 1728,
    "аров</w>": 1729,
    "арт": 1730,
    "арт</w>": 1731,
    "арти": 1732,
    "арх": 1733,
    "архи": 1734,
    "архит": 1735,
    "архитек": 1736,
    "архитект": 1737,
    "архитектур": 1738,
    "архитектуры</w>": 1739,
    "ары</w>": 1740,
    "арь</w>": 1741,
    "аря</w>": 1742,
    "ас": 1743,
    "ассамбле": 1744,
    "ассоци": 1745,
    "ассоциации</w>": 1746,
    "аста": 1747,
    "астро": 1748,
    "астроно": 1749,
    "ась</w>": 1750,
    "ат": 1751,
    "ат</w>": 1752,
    "ата": 1753,
    "ата</w>": 1754,
    "атай": 1755,
    "атак": 1756,
    "ател": 1757,
    "ателей</w>": 1758,
    "ателем</w>": 1759,
    "атели</w>": 1760,
    "атель": 1761,
    "атель</w>": 1762,
    "ательно</w>": 1763,
    "ательного</w>": 1764,
    "ательное</w>": 1765,
    "ательной</w>": 1766,
    "ательные</w>": 1767,
    "ательный</w>": 1768,
    "ательных</w>": 1769,
    "ательства</w>": 1770,
    "ательство</w>": 1771,
    "ателю</w>": 1772,
    "ателя</w>": 1773,
    "ателям</w>": 1774,
    "ателями</w>": 1775,
    "ати": 1776,
    "атив": 1777,
    "атлан": 1778,
    "атмо": 1779,
    "атмосфер": 1780,
    "ато": 1781,
    "атов</w>": 1782,
    "атом": 1783,
    "атомной</w>": 1784,
    "атри": 1785,
    "атся</w>": 1786,
    "аты</w>": 1787,
    "ать</w>": 1788,
    "аться</w>": 1789,
    "ауд": 1790,
    "ауди": 1791,
    "аудито": 1792,
    "аук": 1793,
    "аукци": 1794,
    "аф": 1795,
    "афгани": 1796,
    "афри": 1797,
    "африкан": 1798,
    "ах": 1799,
    "ах</w>": 1800,
    "ации</w>": 1801,
    "ация</w>": 1802,
    "аэ": 1803,
    "аэро": 1804,
    "аэропор": 1805,
    "аэропорт</w>": 1806,
    "аэропорта</w>": 1807,
    "аэропорту</w>": 1808,
    "аэс</w>": 1809,
    "аю</w>": 1810,
    "ают</w>": 1811,
    "аются</w>": 1812,
    "ающих</w>": 1813,
    "ая</w>": 1814,
    "аяся</w>": 1815,
    "б": 1816,
    "б</w>": 1817,
    "ба": 1818,
    "ба</w>": 1819,
    "баз": 1820,
    "базе</w>": 1821,
    "базу</w>": 1822,
    "базы</w>": 1823,
    "бай": 1824,
    "байдж": 1825,
    "бак": 1826,
    "бал": 1827,
    "балан": 1828,
    "бами</w>": 1829,
    "бан": 1830,
    "банд": 1831,
    "банк</w>": 1832,
    "банка</w>": 1833,
    "банки</w>": 1834,
    "банков": 1835,
    "банков</w>": 1836,
    "банкро": 1837,
    "банкрот": 1838,
    "бар": 1839,
    "бара": 1840,
    "барди": 1841,
    "барре": 1842,
    "баррель</w>": 1843,
    "бас": 1844,
    "баск": 1845,
    "баскет": 1846,
    "бассей": 1847,
    "бат": 1848,
    "бах</w>": 1849,
    "баш": 1850,
    "бе": 1851,
    "бе</w>": 1852,
    "бед": 1853,
    "беж": 1854,
    "бежен": 1855,
    "без": 1856,
    "без</w>": 1857,
    "безопас": 1858,
    "безопасности</w>": 1859,
    "безопасность</w>": 1860,
    "безработ": 1861,
    "бел": 1862,
    "белору": 1863,
    "белорус": 1864,
    "белоруссии</w>": 1865,
    "бель": 1866,
    "бен": 1867,
    "бер": 1868,
    "берг</w>": 1869,
    "бере": 1870,
    "береж": 1871,
    "берна": 1872,
    "бес": 1873,
    "бесед": 1874,
    "беско": 1875,
    "бесконе": 1876,
    "бесплат": 1877,
    "бесплатно</w>": 1878,
    "беспор": 1879,
    "беспоряд": 1880,
    "беспорядков</w>": 1881,
    "бесс": 1882,
    "би": 1883,
    "би</w>": 1884,
    "библи": 1885,
    "библиоте": 1886,
    "бизне": 1887,
    "бизнес</w>": 1888,
    "бизнеса</w>": 1889,
    "бизнесмен": 1890,
    "бии</w>": 1891,
    "бил": 1892,
    "билиси</w>": 1893,
    "бин": 1894,
    "био": 1895,
    "биологи": 1896,
    "бир": 1897,
    "бира": 1898,
    "бирже</w>": 1899,
    "биржи</w>": 1900,
    "бит": 1901,
    "бит</w>": 1902,
    "бла": 1903,
    "благо": 1904,
    "благод": 1905,
    "благодаря</w>": 1906,
    "благоприят": 1907,
    "благот": 1908,
    "благотворитель": 1909,
    "бле": 1910,
    "бли": 1911,
    "ближ": 1912,
    "ближай": 1913,
    "ближайшее</w>": 1914,
    "ближайшие</w>": 1915,
    "ближе</w>": 1916,
    "близ": 1917,
    "бло": 1918,
    "блоге</w>": 1919,
    "блок</w>": 1920,
    "блока</w>": 1921,
    "блоки": 1922,
    "бо": 1923,
    "бо</w>": 1924,
    "бов</w>": 1925,
    "богат": 1926,
    "бое": 1927,
    "боеви": 1928,
    "боевики</w>": 1929,
    "боевиков</w>": 1930,
    "боевых</w>": 1931,
    "боепри": 1932,
    "боеприпас": 1933,
    "бой": 1934,
    "бой</w>": 1935,
    "бок": 1936,
    "бок</w>": 1937,
    "бол": 1938,
    "боле": 1939,
    "более</w>": 1940,
    "болез": 1941,
    "болель": 1942,
    "боли": 1943,
    "болу</w>": 1944,
    "боль": 1945,
    "больнице</w>": 1946,
    "больницу</w>": 1947,
    "больницы</w>": 1948,
    "больш": 1949,
    "большая</w>": 1950,
    "больше</w>": 1951,
    "большей</w>": 1952,
    "большие</w>": 1953,
    "большим</w>": 1954,
    "большин": 1955,
    "большинства</w>": 1956,
    "большинство</w>": 1957,
    "больших</w>": 1958,
    "большого</w>": 1959,
    "большое</w>": 1960,
    "большой</w>": 1961,
    "большом</w>": 1962,
    "большую</w>": 1963,
    "бом": 1964,
    "бом</w>": 1965,
    "бомбарди": 1966,
    "бон": 1967,
    "бор": 1968,
    "бор</w>": 1969,
    "бора": 1970,
    "бора</w>": 1971,
    "борис</w>": 1972,
    "боро": 1973,
    "бороны</w>": 1974,
    "бороться</w>": 1975,
    "борту</w>": 1976,
    "борь": 1977,
    "борьбе</w>": 1978,
    "борьбу</w>": 1979,
    "борьбы</w>": 1980,
    "бот": 1981,
    "бр": 1982,
    "бра": 1983,
    "браз": 1984,
    "брат": 1985,
    "брать</w>": 1986,
    "брен": 1987,
    "бри": 1988,
    "брига": 1989,
    "брит": 1990,
    "британ": 1991,
    "британской</w>": 1992,
    "бро": 1993,
    "брон": 1994,
    "брю": 1995,
    "брюсс": 1996,
    "бу": 1997,
    "бу</w>": 1998,
    "буд": 1999,
    "будем</w>": 2000,
    "будет</w>": 2001,
    "буду</w>": 2002,
    "будут</w>": 2003,
    "будущ": 2004,
    "будущего</w>": 2005,
    "будущее</w>": 2006,
    "будущем</w>": 2007,
    "будь</w>": 2008,
    "бужд": 2009,
    "бук": 2010,
    "букв": 2011,
    "буквально</w>": 2012,
    "буль": 2013,
    "бульвар": 2014,
    "бульвар</w>": 2015,
    "бума": 2016,
    "бун": 2017,
    "бур": 2018,
    "бы": 2019,
    "бы</w>": 2020,
    "быв": 2021,
    "бывает</w>": 2022,
    "бывшего</w>": 2023,
    "бывший</w>": 2024,
    "бывших</w>": 2025,
    "был": 2026,
    "был</w>": 2027,
    "была</w>": 2028,
    "были</w>": 2029,
    "было</w>": 2030,
    "быль</w>": 2031,
    "быст": 2032,
    "быстрее</w>": 2033,
    "быстро</w>": 2034,
    "быть</w>": 2035,
    "бю": 2036,
    "бюдж": 2037,
    "бюджет": 2038,
    "бюджет</w>": 2039,
    "бюджета</w>": 2040,
    "бюджетных</w>": 2041,
    "бюро</w>": 2042,
    "бя</w>": 2043,
    "в": 2044,
    "в</w>": 2045,
    "ва": 2046,
    "ва</w>": 2047,
    "вад": 2048,
    "ваем</w>": 2049,
    "вает</w>": 2050,
    "вается</w>": 2051,
    "важ": 2052,
    "важно</w>": 2053,
    "вай": 2054,
    "ваку": 2055,
    "вал": 2056,
    "вал</w>": 2057,
    "вала</w>": 2058,
    "валась</w>": 2059,
    "валерий</w>": 2060,
    "вали": 2061,
    "вали</w>": 2062,
    "вались</w>": 2063,
    "вало</w>": 2064,
    "валось</w>": 2065,
    "вался</w>": 2066,
    "валю": 2067,
    "валют": 2068,
    "валюты</w>": 2069,
    "вам</w>": 2070,
    "вами</w>": 2071,
    "ван": 2072,
    "ван</w>": 2073,
    "вание</w>": 2074,
    "вания</w>": 2075,
    "вар": 2076,
    "вари": 2077,
    "вариан": 2078,
    "вариант</w>": 2079,
    "варианты</w>": 2080,
    "варитель": 2081,
    "вас</w>": 2082,
    "васил": 2083,
    "васто": 2084,
    "ват": 2085,
    "вать</w>": 2086,
    "ваться</w>": 2087,
    "вах</w>": 2088,
    "вашинг": 2089,
    "вашингтон</w>": 2090,
    "вают</w>": 2091,
    "ваются</w>": 2092,
    "вающий</w>": 2093,
    "вающих</w>": 2094,
    "вая</w>": 2095,
    "вв": 2096,
    "введ": 2097,
    "введение</w>": 2098,
    "ввести</w>": 2099,
    "ввод": 2100,
    "ввп</w>": 2101,
    "вд</w>": 2102,
    "ве": 2103,
    "ве</w>": 2104,
    "веб</w>": 2105,
    "вед": 2106,
    "ведение</w>": 2107,
    "ведения</w>": 2108,
    "ведет</w>": 2109,
    "ведется</w>": 2110,
    "ведом": 2111,
    "ведомства</w>": 2112,
    "ведомство</w>": 2113,
    "веду": 2114,
    "ведут</w>": 2115,
    "ведущ": 2116,
    "ведущих</w>": 2117,
    "ведь</w>": 2118,
    "вез": 2119,
    "везд": 2120,
    "вей": 2121,
    "вейц": 2122,
    "век": 2123,
    "века</w>": 2124,
    "вел": 2125,
    "вел</w>": 2126,
    "вела</w>": 2127,
    "вели": 2128,
    "вели</w>": 2129,
    "великобритании</w>": 2130,
    "великобритания</w>": 2131,
    "великой</w>": 2132,
    "вен": 2133,
    "вент": 2134,
    "вер": 2135,
    "верд": 2136,
    "вердлов": 2137,
    "вержд": 2138,
    "верждения</w>": 2139,
    "верну": 2140,
    "вернулся</w>": 2141,
    "вернуть</w>": 2142,
    "вернуться</w>": 2143,
    "веро": 2144,
    "вероят": 2145,
    "вероятно</w>": 2146,
    "вероятность</w>": 2147,
    "верси": 2148,
    "версии</w>": 2149,
    "версию</w>": 2150,
    "версия</w>": 2151,
    "верто": 2152,
    "вертолет": 2153,
    "вертолет</w>": 2154,
    "вертолета</w>": 2155,
    "верх": 2156,
    "верхов": 2157,
    "вес": 2158,
    "вес</w>": 2159,
    "весной</w>": 2160,
    "вест": 2161,
    "вести": 2162,
    "вести</w>": 2163,
    "весь</w>": 2164,
    "весьма</w>": 2165,
    "вет": 2166,
    "вете": 2167,
    "ветер</w>": 2168,
    "ветра</w>": 2169,
    "вечер": 2170,
    "вечером</w>": 2171,
    "вещ": 2172,
    "веще": 2173,
    "веществ</w>": 2174,
    "вещи</w>": 2175,
    "вз": 2176,
    "вза": 2177,
    "взаим": 2178,
    "взаимо": 2179,
    "взаимодей": 2180,
    "взаимодействия</w>": 2181,
    "взгля": 2182,
    "взгляд</w>": 2183,
    "взор": 2184,
    "взросл": 2185,
    "взры": 2186,
    "взрыв": 2187,
    "взрыв</w>": 2188,
    "взрыва</w>": 2189,
    "взыск": 2190,
    "взя": 2191,
    "взял</w>": 2192,
    "взяли</w>": 2193,
    "взят": 2194,
    "взять</w>": 2195,
    "ви": 2196,
    "ви</w>": 2197,
    "вига": 2198,
    "вид": 2199,
    "вид</w>": 2200,
    "вида</w>": 2201,
    "виде": 2202,
    "виде</w>": 2203,
    "видео": 2204,
    "видео</w>": 2205,
    "видет": 2206,
    "видеть</w>": 2207,
    "види": 2208,
    "видим</w>": 2209,
    "видит</w>": 2210,
    "видно</w>": 2211,
    "видов</w>": 2212,
    "виду</w>": 2213,
    "виз": 2214,
    "визи": 2215,
    "визит</w>": 2216,
    "визита</w>": 2217,
    "визу": 2218,
    "вии</w>": 2219,
    "вик": 2220,
    "виктор</w>": 2221,
    "виктора</w>": 2222,
    "вил": 2223,
    "вили</w>": 2224,
    "вин": 2225,
    "вина</w>": 2226,
    "винов": 2227,
    "виновным</w>": 2228,
    "вину</w>": 2229,
    "вир": 2230,
    "вирту": 2231,
    "виру": 2232,
    "вис</w>": 2233,
    "вит": 2234,
    "вита": 2235,
    "вице</w>": 2236,
    "вич</w>": 2237,
    "вкла": 2238,
    "вклад</w>": 2239,
    "вклю": 2240,
    "включает</w>": 2241,
    "включая</w>": 2242,
    "вла": 2243,
    "владе": 2244,
    "владель": 2245,
    "влади": 2246,
    "владивосток</w>": 2247,
    "владими": 2248,
    "владимир</w>": 2249,
    "владимира</w>": 2250,
    "власт": 2251,
    "властей</w>": 2252,
    "власти</w>": 2253,
    "власть</w>": 2254,
    "властям</w>": 2255,
    "властями</w>": 2256,
    "вли": 2257,
    "влия": 2258,
    "влияние</w>": 2259,
    "влож": 2260,
    "вместе</w>": 2261,
    "вместо</w>": 2262,
    "вмеш": 2263,
    "вне": 2264,
    "вне</w>": 2265,
    "внед": 2266,
    "внес": 2267,
    "внести</w>": 2268,
    "внеш": 2269,
    "внешне": 2270,
    "внешней</w>": 2271,
    "вни": 2272,
    "вним": 2273,
    "внимание</w>": 2274,
    "внимания</w>": 2275,
    "вновь</w>": 2276,
    "вну": 2277,
    "внутрен": 2278,
    "внутренних</w>": 2279,
    "внутри</w>": 2280,
    "во": 2281,
    "во</w>": 2282,
    "вов": 2283,
    "вого</w>": 2284,
    "вод": 2285,
    "вод</w>": 2286,
    "вода</w>": 2287,
    "водитель</w>": 2288,
    "водо": 2289,
    "воду</w>": 2290,
    "воды</w>": 2291,
    "вое</w>": 2292,
    "воев": 2293,
    "воен": 2294,
    "военно": 2295,
    "военно</w>": 2296,
    "военного</w>": 2297,
    "военной</w>": 2298,
    "военнослужа": 2299,
    "военнослужащих</w>": 2300,
    "военные</w>": 2301,
    "военный</w>": 2302,
    "военных</w>": 2303,
    "воз": 2304,
    "возбуд": 2305,
    "возбужд": 2306,
    "возбуждено</w>": 2307,
    "возвращ": 2308,
    "возглав": 2309,
    "возглавля": 2310,
    "возгора": 2311,
    "возду": 2312,
    "воздух</w>": 2313,
    "воздуха</w>": 2314,
    "воздуш": 2315,
    "возле</w>": 2316,
    "возмож": 2317,
    "возможно</w>": 2318,
    "возможностей</w>": 2319,
    "возможности</w>": 2320,
    "возможность</w>": 2321,
    "возможные</w>": 2322,
    "возможным</w>": 2323,
    "возможных</w>": 2324,
    "возму": 2325,
    "возник": 2326,
    "возника": 2327,
    "возобнов": 2328,
    "возра": 2329,
    "возраст": 2330,
    "возраста</w>": 2331,
    "возрасте</w>": 2332,
    "возро": 2333,
    "вой": 2334,
    "вой</w>": 2335,
    "войне</w>": 2336,
    "войны</w>": 2337,
    "войск": 2338,
    "войск</w>": 2339,
    "войска</w>": 2340,
    "вок": 2341,
    "вок</w>": 2342,
    "вокруг</w>": 2343,
    "вол": 2344,
    "волго": 2345,
    "волны</w>": 2346,
    "воло": 2347,
    "воль": 2348,
    "волю": 2349,
    "вом</w>": 2350,
    "вообще</w>": 2351,
    "воору": 2352,
    "вооружен": 2353,
    "вооруженных</w>": 2354,
    "воохран": 2355,
    "вопро": 2356,
    "вопрос</w>": 2357,
    "вопроса</w>": 2358,
    "вопросам</w>": 2359,
    "вопросов</w>": 2360,
    "вопросу</w>": 2361,
    "вопросы</w>": 2362,
    "вор": 2363,
    "воритель": 2364,
    "воро": 2365,
    "ворота</w>": 2366,
    "вос": 2367,
    "восемь</w>": 2368,
    "воск": 2369,
    "воскрес": 2370,
    "воскресен": 2371,
    "воскресенье</w>": 2372,
    "воспит": 2373,
    "восстанов": 2374,
    "восто": 2375,
    "восток</w>": 2376,
    "востока</w>": 2377,
    "востоке</w>": 2378,
    "восточной</w>": 2379,
    "вось": 2380,
    "восьми</w>": 2381,
    "вот</w>": 2382,
    "вошли</w>": 2383,
    "впервые</w>": 2384,
    "вперед</w>": 2385,
    "впечат": 2386,
    "вплот": 2387,
    "вполне</w>": 2388,
    "впоследствии</w>": 2389,
    "впрочем</w>": 2390,
    "вра": 2391,
    "врат": 2392,
    "врачи</w>": 2393,
    "вращ": 2394,
    "вре": 2395,
    "вред": 2396,
    "времен": 2397,
    "временем</w>": 2398,
    "времени</w>": 2399,
    "временно</w>": 2400,
    "время</w>": 2401,
    "вроде</w>": 2402,
    "вру": 2403,
    "вруч": 2404,
    "вряд</w>": 2405,
    "вс": 2406,
    "все": 2407,
    "все</w>": 2408,
    "всегда</w>": 2409,
    "всего</w>": 2410,
    "всей</w>": 2411,
    "всем</w>": 2412,
    "всеми</w>": 2413,
    "всемир": 2414,
    "всему</w>": 2415,
    "всех</w>": 2416,
    "вскоре</w>": 2417,
    "вспо": 2418,
    "вспы": 2419,
    "встре": 2420,
    "встрет": 2421,
    "встреч": 2422,
    "встреча</w>": 2423,
    "встрече</w>": 2424,
    "встречи</w>": 2425,
    "встречу</w>": 2426,
    "вступ": 2427,
    "вступл": 2428,
    "всю</w>": 2429,
    "вся": 2430,
    "вся</w>": 2431,
    "всё</w>": 2432,
    "вт": 2433,
    "втб</w>": 2434,
    "вто": 2435,
    "втор": 2436,
    "вторая</w>": 2437,
    "вторник</w>": 2438,
    "второ": 2439,
    "второго</w>": 2440,
    "второе</w>": 2441,
    "второй</w>": 2442,
    "втором</w>": 2443,
    "вторы": 2444,
    "ву": 2445,
    "ву</w>": 2446,
    "вузов</w>": 2447,
    "вул": 2448,
    "вую</w>": 2449,
    "вход": 2450,
    "вход</w>": 2451,
    "входит</w>": 2452,
    "входят</w>": 2453,
    "вчера</w>": 2454,
    "вш": 2455,
    "вшая</w>": 2456,
    "вшего</w>": 2457,
    "вшегося</w>": 2458,
    "вшей</w>": 2459,
    "вшейся</w>": 2460,
    "вшем</w>": 2461,
    "вшие</w>": 2462,
    "вший</w>": 2463,
    "вшийся</w>": 2464,
    "вшись</w>": 2465,
    "вших</w>": 2466,
    "въ": 2467,
    "вы": 2468,
    "вы</w>": 2469,
    "выб": 2470,
    "выбира": 2471,
    "выбо": 2472,
    "выбор": 2473,
    "выбор</w>": 2474,
    "выборах</w>": 2475,
    "выборов</w>": 2476,
    "выборы</w>": 2477,
    "выбра": 2478,
    "выбрать</w>": 2479,
    "выбро": 2480,
    "вывод": 2481,
    "вывод</w>": 2482,
    "выводу</w>": 2483,
    "выгля": 2484,
    "выглядит</w>": 2485,
    "выгод": 2486,
    "выда": 2487,
    "выдвин": 2488,
    "выдел": 2489,
    "вые</w>": 2490,
    "выз": 2491,
    "вызв": 2492,
    "вызов": 2493,
    "вызывает</w>": 2494,
    "выигра": 2495,
    "выиграл</w>": 2496,
    "вый</w>": 2497,
    "выйдет</w>": 2498,
    "выйти</w>": 2499,
    "вылет": 2500,
    "вым</w>": 2501,
    "выми</w>": 2502,
    "выне": 2503,
    "вынужд": 2504,
    "вынужден</w>": 2505,
    "вынуждены</w>": 2506,
    "выпла": 2507,
    "выплаты</w>": 2508,
    "выполн": 2509,
    "выполнение</w>": 2510,
    "выполнения</w>": 2511,
    "выполнить</w>": 2512,
    "выполня": 2513,
    "выполнять</w>": 2514,
    "выпу": 2515,
    "выпуск": 2516,
    "выра": 2517,
    "выраж": 2518,
    "выраз": 2519,
    "выразил</w>": 2520,
    "выро": 2521,
    "вырос</w>": 2522,
    "выросла</w>": 2523,
    "выросли</w>": 2524,
    "выруч": 2525,
    "выс": 2526,
    "высказ": 2527,
    "высказыв": 2528,
    "высо": 2529,
    "высокий</w>": 2530,
    "высоко": 2531,
    "высокой</w>": 2532,
    "высокопостав": 2533,
    "высот": 2534,
    "выстав": 2535,
    "выставка</w>": 2536,
    "выставке</w>": 2537,
    "выставки</w>": 2538,
    "выстре": 2539,
    "выступ": 2540,
    "выступа": 2541,
    "выступает</w>": 2542,
    "выступая</w>": 2543,
    "выступил</w>": 2544,
    "выступили</w>": 2545,
    "выступл": 2546,
    "выступление</w>": 2547,
    "выступления</w>": 2548,
    "высш": 2549,
    "высшего</w>": 2550,
    "вых</w>": 2551,
    "выход": 2552,
    "выход</w>": 2553,
    "выхода</w>": 2554,
    "выходные</w>": 2555,
    "вычай": 2556,
    "вычисл": 2557,
    "выш": 2558,
    "выше</w>": 2559,
    "вышел</w>": 2560,
    "вышла</w>": 2561,
    "вышли</w>": 2562,
    "выяв": 2563,
    "выясн": 2564,
    "выяснилось</w>": 2565,
    "вяче": 2566,
    "г": 2567,
    "г</w>": 2568,
    "га": 2569,
    "га</w>": 2570,
    "гав": 2571,
    "гает</w>": 2572,
    "газ": 2573,
    "газ</w>": 2574,
    "газа</w>": 2575,
    "газета</w>": 2576,
    "газете</w>": 2577,
    "газеты</w>": 2578,
    "газо": 2579,
    "газпро": 2580,
    "газпром</w>": 2581,
    "гай": 2582,
    "гал": 2583,
    "галакти": 2584,
    "гале": 2585,
    "гали": 2586,
    "гам</w>": 2587,
    "гами</w>": 2588,
    "ган": 2589,
    "ган</w>": 2590,
    "гани": 2591,
    "ганской</w>": 2592,
    "гар": 2593,
    "гаран": 2594,
    "гаранти": 2595,
    "гат": 2596,
    "гать</w>": 2597,
    "гах</w>": 2598,
    "гают</w>": 2599,
    "гая</w>": 2600,
    "гвар": 2601,
    "гда</w>": 2602,
    "где</w>": 2603,
    "ге": 2604,
    "ге</w>": 2605,
    "геди": 2606,
    "гей": 2607,
    "гей</w>": 2608,
    "гект": 2609,
    "гектаров</w>": 2610,
    "ген": 2611,
    "гендиректор</w>": 2612,
    "генера": 2613,
    "генерал</w>": 2614,
    "генераль": 2615,
    "генерального</w>": 2616,
    "генеральный</w>": 2617,
    "генерации</w>": 2618,
    "генери": 2619,
    "гент": 2620,
    "гео": 2621,
    "гер": 2622,
    "гер</w>": 2623,
    "германии</w>": 2624,
    "германия</w>": 2625,
    "геро": 2626,
    "гея</w>": 2627,
    "ги": 2628,
    "ги</w>": 2629,
    "гиб": 2630,
    "гибдд</w>": 2631,
    "гибели</w>": 2632,
    "гиган": 2633,
    "гидро": 2634,
    "гие</w>": 2635,
    "гии</w>": 2636,
    "гим": 2637,
    "гин": 2638,
    "гин</w>": 2639,
    "гип": 2640,
    "гипоте": 2641,
    "гия</w>": 2642,
    "гл": 2643,
    "гла": 2644,
    "гла</w>": 2645,
    "глав": 2646,
    "глав</w>": 2647,
    "глава</w>": 2648,
    "главе</w>": 2649,
    "главного</w>": 2650,
    "главное</w>": 2651,
    "главной</w>": 2652,
    "главный</w>": 2653,
    "главным</w>": 2654,
    "главных</w>": 2655,
    "главой</w>": 2656,
    "главу</w>": 2657,
    "главы</w>": 2658,
    "гласно</w>": 2659,
    "гли</w>": 2660,
    "гло": 2661,
    "гло</w>": 2662,
    "глоб": 2663,
    "глу": 2664,
    "глуб": 2665,
    "глубо": 2666,
    "гля": 2667,
    "гн": 2668,
    "гну": 2669,
    "го": 2670,
    "го</w>": 2671,
    "гов": 2672,
    "гов</w>": 2673,
    "говари": 2674,
    "гово": 2675,
    "гового</w>": 2676,
    "говой</w>": 2677,
    "говор": 2678,
    "говори": 2679,
    "говорил</w>": 2680,
    "говорили</w>": 2681,
    "говорит</w>": 2682,
    "говорится</w>": 2683,
    "говорить</w>": 2684,
    "говоря</w>": 2685,
    "говорят</w>": 2686,
    "год": 2687,
    "год</w>": 2688,
    "года</w>": 2689,
    "годам</w>": 2690,
    "годах</w>": 2691,
    "годов</w>": 2692,
    "годом</w>": 2693,
    "году</w>": 2694,
    "годы</w>": 2695,
    "гой</w>": 2696,
    "гол": 2697,
    "гол</w>": 2698,
    "голо": 2699,
    "голов": 2700,
    "голову</w>": 2701,
    "голод": 2702,
    "голос": 2703,
    "голосов</w>": 2704,
    "голосование</w>": 2705,
    "голосования</w>": 2706,
    "голь": 2707,
    "гом</w>": 2708,
    "гон": 2709,
    "гона</w>": 2710,
    "гор": 2711,
    "гора": 2712,
    "гораз": 2713,
    "гораздо</w>": 2714,
    "горе": 2715,
    "гори": 2716,
    "горит": 2717,
    "горо": 2718,
    "город": 2719,
    "город</w>": 2720,
    "города</w>": 2721,
    "городах</w>": 2722,
    "городе</w>": 2723,
    "городов</w>": 2724,
    "городских</w>": 2725,
    "городского</w>": 2726,
    "городской</w>": 2727,
    "горя": 2728,
    "гос": 2729,
    "госдумы</w>": 2730,
    "госпит": 2731,
    "госпитализи": 2732,
    "госпитализированы</w>": 2733,
    "господ": 2734,
    "госро": 2735,
    "гост": 2736,
    "гостей</w>": 2737,
    "гости": 2738,
    "государ": 2739,
    "государств</w>": 2740,
    "государства</w>": 2741,
    "государствен": 2742,
    "государственного</w>": 2743,
    "государственной</w>": 2744,
    "государственный</w>": 2745,
    "государственных</w>": 2746,
    "государство</w>": 2747,
    "гося</w>": 2748,
    "гот": 2749,
    "готов": 2750,
    "готов</w>": 2751,
    "готова</w>": 2752,
    "готовности</w>": 2753,
    "готовы</w>": 2754,
    "гра": 2755,
    "гравита": 2756,
    "град": 2757,
    "град</w>": 2758,
    "граде</w>": 2759,
    "градо": 2760,
    "граду": 2761,
    "градусов</w>": 2762,
    "гражд": 2763,
    "граждан": 2764,
    "граждан</w>": 2765,
    "гражданам</w>": 2766,
    "граждане</w>": 2767,
    "гражданин</w>": 2768,
    "гражданина</w>": 2769,
    "гражданского</w>": 2770,
    "гражданской</w>": 2771,
    "грам": 2772,
    "гран": 2773,
    "границе</w>": 2774,
    "границу</w>": 2775,
    "границы</w>": 2776,
    "гранич": 2777,
    "граф": 2778,
    "графи": 2779,
    "гре": 2780,
    "грес": 2781,
    "греции</w>": 2782,
    "гри": 2783,
    "гро": 2784,
    "гроз": 2785,
    "грозит</w>": 2786,
    "гром": 2787,
    "гру": 2788,
    "груз": 2789,
    "грузии</w>": 2790,
    "грузин": 2791,
    "грузов": 2792,
    "грузови": 2793,
    "груп": 2794,
    "групп": 2795,
    "групп</w>": 2796,
    "группа</w>": 2797,
    "группе</w>": 2798,
    "группиров": 2799,
    "группировки</w>": 2800,
    "группой</w>": 2801,
    "группу</w>": 2802,
    "группы</w>": 2803,
    "гры": 2804,
    "гряз": 2805,
    "гу": 2806,
    "гу</w>": 2807,
    "губерна": 2808,
    "губернатор</w>": 2809,
    "губернатора</w>": 2810,
    "гуман": 2811,
    "гуманитар": 2812,
    "гут</w>": 2813,
    "гуш": 2814,
    "гую</w>": 2815,
    "д": 2816,
    "д</w>": 2817,
    "да": 2818,
    "да</w>": 2819,
    "дав": 2820,
    "давать</w>": 2821,
    "давление</w>": 2822,
    "давно</w>": 2823,
    "даге": 2824,
    "дает</w>": 2825,
    "дается</w>": 2826,
    "даже</w>": 2827,
    "дал": 2828,
    "дал</w>": 2829,
    "дала</w>": 2830,
    "дале": 2831,
    "далее</w>": 2832,
    "далеко</w>": 2833,
    "дали</w>": 2834,
    "даль": 2835,
    "дальней": 2836,
    "дальнейшем</w>": 2837,
    "дальше</w>": 2838,
    "дам</w>": 2839,
    "дами</w>": 2840,
    "дан": 2841,
    "дан</w>": 2842,
    "дана</w>": 2843,
    "данного</w>": 2844,
    "данной</w>": 2845,
    "данном</w>": 2846,
    "данному</w>": 2847,
    "данные</w>": 2848,
    "данный</w>": 2849,
    "данным</w>": 2850,
    "данными</w>": 2851,
    "данных</w>": 2852,
    "дано</w>": 2853,
    "дар": 2854,
    "даст</w>": 2855,
    "дат": 2856,
    "дат</w>": 2857,
    "дата</w>": 2858,
    "датель": 2859,
    "даты</w>": 2860,
    "дать</w>": 2861,
    "дафи</w>": 2862,
    "дах</w>": 2863,
    "дации</w>": 2864,
    "дают</w>": 2865,
    "два": 2866,
    "два</w>": 2867,
    "двад": 2868,
    "дважды</w>": 2869,
    "две</w>": 2870,
    "двер": 2871,
    "дви": 2872,
    "двиг": 2873,
    "движ": 2874,
    "движение</w>": 2875,
    "движения</w>": 2876,
    "движи": 2877,
    "двин": 2878,
    "дво": 2879,
    "двое</w>": 2880,
    "двой": 2881,
    "двор": 2882,
    "дву": 2883,
    "двум</w>": 2884,
    "двумя</w>": 2885,
    "двусторон": 2886,
    "двух": 2887,
    "двух</w>": 2888,
    "дд</w>": 2889,
    "де": 2890,
    "де</w>": 2891,
    "дев": 2892,
    "девел": 2893,
    "дево": 2894,
    "деву": 2895,
    "девят": 2896,
    "девяти</w>": 2897,
    "девять</w>": 2898,
    "дежур": 2899,
    "дей": 2900,
    "дей</w>": 2901,
    "действ": 2902,
    "действи": 2903,
    "действие</w>": 2904,
    "действий</w>": 2905,
    "действительно</w>": 2906,
    "действия</w>": 2907,
    "действов": 2908,
    "действовать</w>": 2909,
    "действу": 2910,
    "действует</w>": 2911,
    "дек": 2912,
    "дек</w>": 2913,
    "дека": 2914,
    "декабр": 2915,
    "декабре</w>": 2916,
    "декабря</w>": 2917,
    "декла": 2918,
    "деко": 2919,
    "дел": 2920,
    "дел</w>": 2921,
    "дела</w>": 2922,
    "делает</w>": 2923,
    "делам</w>": 2924,
    "делать</w>": 2925,
    "делают</w>": 2926,
    "деле": 2927,
    "деле</w>": 2928,
    "делега": 2929,
    "делец</w>": 2930,
    "дели</w>": 2931,
    "дело</w>": 2932,
    "делу</w>": 2933,
    "дель": 2934,
    "демо": 2935,
    "демокра": 2936,
    "демон": 2937,
    "демонстра": 2938,
    "демонстран": 2939,
    "демонстри": 2940,
    "ден": 2941,
    "ден</w>": 2942,
    "дене": 2943,
    "денег</w>": 2944,
    "денеж": 2945,
    "дени": 2946,
    "дент": 2947,
    "дент</w>": 2948,
    "денти": 2949,
    "дентов</w>": 2950,
    "дентом</w>": 2951,
    "день": 2952,
    "день</w>": 2953,
    "деньги</w>": 2954,
    "департа": 2955,
    "департамент</w>": 2956,
    "департамента</w>": 2957,
    "депу": 2958,
    "депутат": 2959,
    "депутат</w>": 2960,
    "депутата</w>": 2961,
    "депутатов</w>": 2962,
    "депутаты</w>": 2963,
    "дер": 2964,
    "дер</w>": 2965,
    "дера</w>": 2966,
    "дерев": 2967,
    "держ": 2968,
    "держи": 2969,
    "дерланд": 2970,
    "дес": 2971,
    "десь</w>": 2972,
    "десят": 2973,
    "десяти</w>": 2974,
    "десятки</w>": 2975,
    "десятков</w>": 2976,
    "десять</w>": 2977,
    "дет": 2978,
    "дет</w>": 2979,
    "детали</w>": 2980,
    "детей</w>": 2981,
    "дети</w>": 2982,
    "детских</w>": 2983,
    "детского</w>": 2984,
    "деть</w>": 2985,
    "детьми</w>": 2986,
    "детям</w>": 2987,
    "дефици": 2988,
    "дешев": 2989,
    "деят": 2990,
    "деятель": 2991,
    "деятельности</w>": 2992,
    "деятельность</w>": 2993,
    "дж": 2994,
    "джи": 2995,
    "дзе</w>": 2996,
    "ди": 2997,
    "ди</w>": 2998,
    "диа": 2999,
    "диаг": 3000,
    "диагно": 3001,
    "диало": 3002,
    "диалог</w>": 3003,
    "диапа": 3004,
    "дизай": 3005,
    "дии</w>": 3006,
    "дий</w>": 3007,
    "дим</w>": 3008,
    "дими": 3009,
    "дин": 3010,
    "дина": 3011,
    "дина</w>": 3012,
    "динами": 3013,
    "динамо</w>": 3014,
    "дины</w>": 3015,
    "дипло": 3016,
    "дипломат": 3017,
    "дипломати": 3018,
    "дирек": 3019,
    "директор</w>": 3020,
    "директора</w>": 3021,
    "директоров</w>": 3022,
    "дис": 3023,
    "диск": 3024,
    "диску": 3025,
    "дисци": 3026,
    "дит</w>": 3027,
    "дия</w>": 3028,
    "дл": 3029,
    "дли": 3030,
    "длин": 3031,
    "для</w>": 3032,
    "дмит": 3033,
    "дмитрий</w>": 3034,
    "дмитрия</w>": 3035,
    "дн": 3036,
    "днев": 3037,
    "дней</w>": 3038,
    "днем</w>": 3039,
    "дни</w>": 3040,
    "дня</w>": 3041,
    "до": 3042,
    "до</w>": 3043,
    "доб": 3044,
    "добав": 3045,
    "добавив</w>": 3046,
    "добавил</w>": 3047,
    "добавила</w>": 3048,
    "добавить</w>": 3049,
    "добиться</w>": 3050,
    "добро": 3051,
    "добров": 3052,
    "доброволь": 3053,
    "добы": 3054,
    "дов": 3055,
    "дов</w>": 3056,
    "довер": 3057,
    "доверия</w>": 3058,
    "доволь": 3059,
    "довольно</w>": 3060,
    "догово": 3061,
    "договор": 3062,
    "договор</w>": 3063,
    "договора</w>": 3064,
    "договоренности</w>": 3065,
    "договори": 3066,
    "договорились</w>": 3067,
    "дожд": 3068,
    "дой</w>": 3069,
    "док</w>": 3070,
    "доказ": 3071,
    "доказатель": 3072,
    "докла": 3073,
    "доку": 3074,
    "докумен": 3075,
    "документ</w>": 3076,
    "документа</w>": 3077,
    "документе</w>": 3078,
    "документов</w>": 3079,
    "документы</w>": 3080,
    "дол": 3081,
    "долг</w>": 3082,
    "долга</w>": 3083,
    "долго": 3084,
    "долго</w>": 3085,
    "долгосро": 3086,
    "долж": 3087,
    "должен</w>": 3088,
    "должна</w>": 3089,
    "должно</w>": 3090,
    "должност": 3091,
    "должности</w>": 3092,
    "должностных</w>": 3093,
    "должность</w>": 3094,
    "должны</w>": 3095,
    "доллар": 3096,
    "доллар</w>": 3097,
    "доллара</w>": 3098,
    "долларов</w>": 3099,
    "доль": 3100,
    "долю</w>": 3101,
    "доля</w>": 3102,
    "дом": 3103,
    "дом</w>": 3104,
    "дома</w>": 3105,
    "домаш": 3106,
    "доме</w>": 3107,
    "домов</w>": 3108,
    "домой</w>": 3109,
    "домости</w>": 3110,
    "дон": 3111,
    "донба": 3112,
    "доне": 3113,
    "донец": 3114,
    "донецкой</w>": 3115,
    "дону</w>": 3116,
    "дополн": 3117,
    "дополнительные</w>": 3118,
    "дополнительных</w>": 3119,
    "допро": 3120,
    "допуск": 3121,
    "допусти": 3122,
    "дор</w>": 3123,
    "доро": 3124,
    "доров": 3125,
    "дорог</w>": 3126,
    "дороге</w>": 3127,
    "дороги</w>": 3128,
    "дорож": 3129,
    "дорожного</w>": 3130,
    "досро": 3131,
    "доста": 3132,
    "достав": 3133,
    "достаточ": 3134,
    "достаточно</w>": 3135,
    "дости": 3136,
    "достиг": 3137,
    "достигну": 3138,
    "достижения</w>": 3139,
    "досто": 3140,
    "достовер": 3141,
    "доступ": 3142,
    "доступ</w>": 3143,
    "доступа</w>": 3144,
    "дох": 3145,
    "доход": 3146,
    "доходов</w>": 3147,
    "доходы</w>": 3148,
    "дочер": 3149,
    "дочь</w>": 3150,
    "др</w>": 3151,
    "дра": 3152,
    "древ": 3153,
    "дри": 3154,
    "дро": 3155,
    "дру": 3156,
    "друг</w>": 3157,
    "друга</w>": 3158,
    "другая</w>": 3159,
    "други": 3160,
    "другие</w>": 3161,
    "другим</w>": 3162,
    "другими</w>": 3163,
    "других</w>": 3164,
    "друго": 3165,
    "другого</w>": 3166,
    "другое</w>": 3167,
    "другой</w>": 3168,
    "другом</w>": 3169,
    "другую</w>": 3170,
    "друз": 3171,
    "дт": 3172,
    "дтп</w>": 3173,
    "ду": 3174,
    "ду</w>": 3175,
    "дуар": 3176,
    "дуб": 3177,
    "дум": 3178,
    "дум</w>": 3179,
    "дума": 3180,
    "дума</w>": 3181,
    "думать</w>": 3182,
    "думаю</w>": 3183,
    "думе</w>": 3184,
    "думу</w>": 3185,
    "думы</w>": 3186,
    "дут</w>": 3187,
    "духов": 3188,
    "душ": 3189,
    "ды": 3190,
    "ды</w>": 3191,
    "дэ": 3192,
    "дю": 3193,
    "е": 3194,
    "е</w>": 3195,
    "еб": 3196,
    "ев": 3197,
    "ев</w>": 3198,
    "ева</w>": 3199,
    "евг": 3200,
    "евгений</w>": 3201,
    "еве</w>": 3202,
    "ево</w>": 3203,
    "евой</w>": 3204,
    "евра": 3205,
    "евро": 3206,
    "евро</w>": 3207,
    "европе</w>": 3208,
    "европей": 3209,
    "европейских</w>": 3210,
    "европейского</w>": 3211,
    "европейской</w>": 3212,
    "европы</w>": 3213,
    "евросоюза</w>": 3214,
    "евский</w>": 3215,
    "еву</w>": 3216,
    "евым</w>": 3217,
    "ег": 3218,
    "еги": 3219,
    "егип": 3220,
    "египет": 3221,
    "египта</w>": 3222,
    "его": 3223,
    "его</w>": 3224,
    "ед": 3225,
    "ед</w>": 3226,
    "едера": 3227,
    "еди": 3228,
    "един": 3229,
    "единая</w>": 3230,
    "единиц</w>": 3231,
    "едино": 3232,
    "единой</w>": 3233,
    "единственный</w>": 3234,
    "едли": 3235,
    "еднев": 3236,
    "ее</w>": 3237,
    "еж": 3238,
    "еже": 3239,
    "ежегод": 3240,
    "ежегодно</w>": 3241,
    "ежеднев": 3242,
    "ез": 3243,
    "езд": 3244,
    "езд</w>": 3245,
    "езда</w>": 3246,
    "езде</w>": 3247,
    "езж": 3248,
    "ей": 3249,
    "ей</w>": 3250,
    "ейся</w>": 3251,
    "ек": 3252,
    "ек</w>": 3253,
    "екат": 3254,
    "екатерина</w>": 3255,
    "екатеринбур": 3256,
    "ект": 3257,
    "ект</w>": 3258,
    "ектив": 3259,
    "ел": 3260,
    "ел</w>": 3261,
    "ела</w>": 3262,
    "еле": 3263,
    "еле</w>": 3264,
    "елей</w>": 3265,
    "елена</w>": 3266,
    "ели": 3267,
    "ели</w>": 3268,
    "ело</w>": 3269,
    "елось</w>": 3270,
    "ель": 3271,
    "ель</w>": 3272,
    "ельно</w>": 3273,
    "елью</w>": 3274,
    "еля</w>": 3275,
    "ем": 3276,
    "ем</w>": 3277,
    "ема</w>": 3278,
    "емати": 3279,
    "емая</w>": 3280,
    "емо": 3281,
    "емого</w>": 3282,
    "емое</w>": 3283,
    "емой</w>": 3284,
    "емом</w>": 3285,
    "емости</w>": 3286,
    "емся</w>": 3287,
    "ему</w>": 3288,
    "емы": 3289,
    "емые</w>": 3290,
    "емый</w>": 3291,
    "емым</w>": 3292,
    "емых</w>": 3293,
    "ен": 3294,
    "ен</w>": 3295,
    "ена": 3296,
    "ена</w>": 3297,
    "ени": 3298,
    "ение</w>": 3299,
    "ением</w>": 3300,
    "ении</w>": 3301,
    "ений</w>": 3302,
    "енит</w>": 3303,
    "ению</w>": 3304,
    "ения</w>": 3305,
    "ениям</w>": 3306,
    "ениями</w>": 3307,
    "ениях</w>": 3308,
    "енко</w>": 3309,
    "енная</w>": 3310,
    "енно</w>": 3311,
    "енного</w>": 3312,
    "енное</w>": 3313,
    "енной</w>": 3314,
    "енном</w>": 3315,
    "енности</w>": 3316,
    "енность</w>": 3317,
    "енную</w>": 3318,
    "енные</w>": 3319,
    "енный</w>": 3320,
    "енным</w>": 3321,
    "енными</w>": 3322,
    "енных</w>": 3323,
    "ено</w>": 3324,
    "ент": 3325,
    "ент</w>": 3326,
    "ента</w>": 3327,
    "енте</w>": 3328,
    "ентов</w>": 3329,
    "енту</w>": 3330,
    "енты</w>": 3331,
    "ены</w>": 3332,
    "ень": 3333,
    "ень</w>": 3334,
    "ер": 3335,
    "ер</w>": 3336,
    "ера": 3337,
    "ера</w>": 3338,
    "ераль": 3339,
    "ербур": 3340,
    "ере</w>": 3341,
    "ерж": 3342,
    "ери": 3343,
    "ерии</w>": 3344,
    "ерий</w>": 3345,
    "ерин": 3346,
    "ерина</w>": 3347,
    "еринбур": 3348,
    "ерия</w>": 3349,
    "ерни": 3350,
    "еров</w>": 3351,
    "ером</w>": 3352,
    "ерт": 3353,
    "еру</w>": 3354,
    "еры</w>": 3355,
    "ес": 3356,
    "ес</w>": 3357,
    "если</w>": 3358,
    "есте": 3359,
    "ести</w>": 3360,
    "есть</w>": 3361,
    "есу": 3362,
    "есуэ": 3363,
    "есь</w>": 3364,
    "еся</w>": 3365,
    "ет": 3366,
    "ет</w>": 3367,
    "ета</w>": 3368,
    "ете</w>": 3369,
    "ети": 3370,
    "етии</w>": 3371,
    "етов</w>": 3372,
    "етом</w>": 3373,
    "ется</w>": 3374,
    "ету</w>": 3375,
    "еты</w>": 3376,
    "еть</w>": 3377,
    "ех": 3378,
    "ехал</w>": 3379,
    "ехали</w>": 3380,
    "ехать</w>": 3381,
    "ец</w>": 3382,
    "ешь</w>": 3383,
    "ещ": 3384,
    "еще</w>": 3385,
    "ещё</w>": 3386,
    "её</w>": 3387,
    "ж": 3388,
    "ж</w>": 3389,
    "жа": 3390,
    "жа</w>": 3391,
    "жал": 3392,
    "жалоб": 3393,
    "жалобу</w>": 3394,
    "жан": 3395,
    "жан</w>": 3396,
    "жать</w>": 3397,
    "жд": 3398,
    "жд</w>": 3399,
    "жда</w>": 3400,
    "ждать</w>": 3401,
    "жде": 3402,
    "ждение</w>": 3403,
    "ждения</w>": 3404,
    "жду</w>": 3405,
    "жды</w>": 3406,
    "же": 3407,
    "же</w>": 3408,
    "жей</w>": 3409,
    "жел": 3410,
    "жела": 3411,
    "желание</w>": 3412,
    "желез": 3413,
    "железнодорож": 3414,
    "жем</w>": 3415,
    "жен": 3416,
    "жен</w>": 3417,
    "жена</w>": 3418,
    "жение</w>": 3419,
    "жением</w>": 3420,
    "жении</w>": 3421,
    "жений</w>": 3422,
    "жению</w>": 3423,
    "жения</w>": 3424,
    "женный</w>": 3425,
    "женных</w>": 3426,
    "жено</w>": 3427,
    "женщ": 3428,
    "женщи": 3429,
    "женщин</w>": 3430,
    "женщина</w>": 3431,
    "женщины</w>": 3432,
    "жены</w>": 3433,
    "жер": 3434,
    "жерт": 3435,
    "жертв</w>": 3436,
    "жертвами</w>": 3437,
    "жест": 3438,
    "жесто": 3439,
    "жи": 3440,
    "жи</w>": 3441,
    "жив": 3442,
    "живает</w>": 3443,
    "живание</w>": 3444,
    "живания</w>": 3445,
    "живать</w>": 3446,
    "живо": 3447,
    "живот": 3448,
    "животных</w>": 3449,
    "жид": 3450,
    "жие</w>": 3451,
    "жиз": 3452,
    "жизн": 3453,
    "жизни</w>": 3454,
    "жизнь</w>": 3455,
    "жил": 3456,
    "жил</w>": 3457,
    "жили</w>": 3458,
    "жилищ": 3459,
    "жилых</w>": 3460,
    "жиль": 3461,
    "жилье</w>": 3462,
    "жилья</w>": 3463,
    "жим</w>": 3464,
    "жит</w>": 3465,
    "жителей</w>": 3466,
    "жители</w>": 3467,
    "житель": 3468,
    "житель</w>": 3469,
    "жить</w>": 3470,
    "жкх</w>": 3471,
    "жно</w>": 3472,
    "жного</w>": 3473,
    "жной</w>": 3474,
    "жности</w>": 3475,
    "жные</w>": 3476,
    "жный</w>": 3477,
    "жных</w>": 3478,
    "жу": 3479,
    "жу</w>": 3480,
    "жур": 3481,
    "журн": 3482,
    "журнала</w>": 3483,
    "журнале</w>": 3484,
    "журнали": 3485,
    "журналиста</w>": 3486,
    "журналистам</w>": 3487,
    "журналистов</w>": 3488,
    "журналисты</w>": 3489,
    "жю": 3490,
    "жюри</w>": 3491,
    "з": 3492,
    "з</w>": 3493,
    "за": 3494,
    "за</w>": 3495,
    "заб": 3496,
    "заблоки": 3497,
    "заболе": 3498,
    "заболев": 3499,
    "забро": 3500,
    "забы": 3501,
    "зав": 3502,
    "завед": 3503,
    "завер": 3504,
    "заверш": 3505,
    "завершения</w>": 3506,
    "завершилась</w>": 3507,
    "завершить</w>": 3508,
    "зави": 3509,
    "завис": 3510,
    "зависи": 3511,
    "зависимости</w>": 3512,
    "зависит</w>": 3513,
    "завод": 3514,
    "завод</w>": 3515,
    "завода</w>": 3516,
    "завоев": 3517,
    "завтра</w>": 3518,
    "загру": 3519,
    "загруз": 3520,
    "зад": 3521,
    "зада": 3522,
    "задач</w>": 3523,
    "задача</w>": 3524,
    "задачи</w>": 3525,
    "задачу</w>": 3526,
    "задействов": 3527,
    "задерж": 3528,
    "задержали</w>": 3529,
    "задержан</w>": 3530,
    "задержанных</w>": 3531,
    "задержаны</w>": 3532,
    "задолж": 3533,
    "заинтересов": 3534,
    "зай": 3535,
    "заказ": 3536,
    "закан": 3537,
    "заклю": 3538,
    "заключ": 3539,
    "заключается</w>": 3540,
    "заключение</w>": 3541,
    "заключения</w>": 3542,
    "заключил</w>": 3543,
    "зако": 3544,
    "закон": 3545,
    "закон</w>": 3546,
    "закона</w>": 3547,
    "законо": 3548,
    "законодатель": 3549,
    "законодательства</w>": 3550,
    "законом</w>": 3551,
    "законопроект</w>": 3552,
    "законопроекта</w>": 3553,
    "закону</w>": 3554,
    "законч": 3555,
    "закры": 3556,
    "закрытия</w>": 3557,
    "заку": 3558,
    "закуп": 3559,
    "зал": 3560,
    "зал</w>": 3561,
    "зала</w>": 3562,
    "зале</w>": 3563,
    "зали": 3564,
    "зало": 3565,
    "залож": 3566,
    "зам": 3567,
    "зам</w>": 3568,
    "замглавы</w>": 3569,
    "замед": 3570,
    "замен": 3571,
    "замест": 3572,
    "заместитель</w>": 3573,
    "заместителя</w>": 3574,
    "замет": 3575,
    "заметил</w>": 3576,
    "замеч": 3577,
    "зами</w>": 3578,
    "замминистра</w>": 3579,
    "зан": 3580,
    "зани": 3581,
    "заним": 3582,
    "занима": 3583,
    "занимает</w>": 3584,
    "занимается</w>": 3585,
    "занимал</w>": 3586,
    "заниматься</w>": 3587,
    "заня": 3588,
    "занял</w>": 3589,
    "заняти": 3590,
    "зао</w>": 3591,
    "зап": 3592,
    "запа": 3593,
    "запад": 3594,
    "западе</w>": 3595,
    "запас": 3596,
    "запис": 3597,
    "записи</w>": 3598,
    "запись</w>": 3599,
    "заплани": 3600,
    "запланировано</w>": 3601,
    "заповед": 3602,
    "запре": 3603,
    "запрет": 3604,
    "запрет</w>": 3605,
    "запрещ": 3606,
    "запро": 3607,
    "запрос</w>": 3608,
    "запу": 3609,
    "запуск": 3610,
    "запуск</w>": 3611,
    "запуска</w>": 3612,
    "зар": 3613,
    "заработ": 3614,
    "заранее</w>": 3615,
    "зарегистри": 3616,
    "зарубеж": 3617,
    "зарубежных</w>": 3618,
    "засед": 3619,
    "заседание</w>": 3620,
    "заседании</w>": 3621,
    "заседания</w>": 3622,
    "заслу": 3623,
    "застав": 3624,
    "застрой": 3625,
    "зат": 3626,
    "затем</w>": 3627,
    "зато": 3628,
    "затруд": 3629,
    "зафикси": 3630,
    "зах": 3631,
    "зах</w>": 3632,
    "захва": 3633,
    "захват": 3634,
    "зацией</w>": 3635,
    "зации</w>": 3636,
    "зацию</w>": 3637,
    "зация</w>": 3638,
    "зачем</w>": 3639,
    "защи": 3640,
    "защит": 3641,
    "защита</w>": 3642,
    "защите</w>": 3643,
    "защитник</w>": 3644,
    "защиту</w>": 3645,
    "защиты</w>": 3646,
    "защищ": 3647,
    "заяв": 3648,
    "заявил</w>": 3649,
    "заявила</w>": 3650,
    "заявили</w>": 3651,
    "заявление</w>": 3652,
    "заявлении</w>": 3653,
    "заявления</w>": 3654,
    "заявлял</w>": 3655,
    "зв": 3656,
    "звез": 3657,
    "звезд": 3658,
    "звезд</w>": 3659,
    "звезды</w>": 3660,
    "зво": 3661,
    "звон": 3662,
    "зву": 3663,
    "звуч": 3664,
    "зд": 3665,
    "здание</w>": 3666,
    "здании</w>": 3667,
    "зданий</w>": 3668,
    "здания</w>": 3669,
    "здесь</w>": 3670,
    "здоров": 3671,
    "здоровья</w>": 3672,
    "здра": 3673,
    "здравоохран": 3674,
    "здравоохранения</w>": 3675,
    "зе</w>": 3676,
    "зел": 3677,
    "зелен": 3678,
    "зем": 3679,
    "земель": 3680,
    "земле</w>": 3681,
    "землетряс": 3682,
    "землетрясения</w>": 3683,
    "земли</w>": 3684,
    "землю</w>": 3685,
    "зен": 3686,
    "зер": 3687,
    "зи": 3688,
    "зии</w>": 3689,
    "зим": 3690,
    "зин": 3691,
    "зин</w>": 3692,
    "зит</w>": 3693,
    "зия</w>": 3694,
    "злоу": 3695,
    "злоумышлен": 3696,
    "злоупотреб": 3697,
    "зм</w>": 3698,
    "зма</w>": 3699,
    "зн": 3700,
    "зна": 3701,
    "знаем</w>": 3702,
    "знает</w>": 3703,
    "знак</w>": 3704,
    "знаком": 3705,
    "знамен": 3706,
    "знамени": 3707,
    "знаменит": 3708,
    "знать</w>": 3709,
    "знач": 3710,
    "значение</w>": 3711,
    "значения</w>": 3712,
    "значи": 3713,
    "значит</w>": 3714,
    "значительно</w>": 3715,
    "знаю</w>": 3716,
    "знают</w>": 3717,
    "зо": 3718,
    "зов": 3719,
    "зов</w>": 3720,
    "золо": 3721,
    "золот": 3722,
    "золото</w>": 3723,
    "зон": 3724,
    "зон</w>": 3725,
    "зона</w>": 3726,
    "зоне</w>": 3727,
    "зону</w>": 3728,
    "зоны</w>": 3729,
    "зор": 3730,
    "зрения</w>": 3731,
    "зрител": 3732,
    "зрителей</w>": 3733,
    "зу": 3734,
    "зу</w>": 3735,
    "зуб": 3736,
    "зубовский</w>": 3737,
    "зы": 3738,
    "зы</w>": 3739,
    "зя</w>": 3740,
    "и": 3741,
    "и</w>": 3742,
    "ив": 3743,
    "ив</w>": 3744,
    "иван": 3745,
    "иван</w>": 3746,
    "иг": 3747,
    "игор": 3748,
    "игорь</w>": 3749,
    "игр</w>": 3750,
    "игра": 3751,
    "игра</w>": 3752,
    "играет</w>": 3753,
    "играть</w>": 3754,
    "играх</w>": 3755,
    "игре</w>": 3756,
    "игро": 3757,
    "игров": 3758,
    "игровой</w>": 3759,
    "игрок</w>": 3760,
    "игрока</w>": 3761,
    "игроки</w>": 3762,
    "игроков</w>": 3763,
    "игру</w>": 3764,
    "игры": 3765,
    "игры</w>": 3766,
    "ид": 3767,
    "иде": 3768,
    "идеи</w>": 3769,
    "иденти": 3770,
    "идет</w>": 3771,
    "идею</w>": 3772,
    "идея</w>": 3773,
    "идти</w>": 3774,
    "идут</w>": 3775,
    "ие</w>": 3776,
    "из": 3777,
    "из</w>": 3778,
    "иза</w>": 3779,
    "изб": 3780,
    "избеж": 3781,
    "избежать</w>": 3782,
    "изби": 3783,
    "избират": 3784,
    "избирателей</w>": 3785,
    "избиратель": 3786,
    "избирательных</w>": 3787,
    "избра": 3788,
    "избран": 3789,
    "изв": 3790,
    "извест": 3791,
    "известен</w>": 3792,
    "известно</w>": 3793,
    "известный</w>": 3794,
    "известных</w>": 3795,
    "извин": 3796,
    "изготов": 3797,
    "изд": 3798,
    "издание</w>": 3799,
    "издания</w>": 3800,
    "издел": 3801,
    "изи": 3802,
    "изировать</w>": 3803,
    "излуч": 3804,
    "изм</w>": 3805,
    "изма</w>": 3806,
    "измен": 3807,
    "изменение</w>": 3808,
    "изменений</w>": 3809,
    "изменения</w>": 3810,
    "изменить</w>": 3811,
    "измер": 3812,
    "изначально</w>": 3813,
    "изне": 3814,
    "изо": 3815,
    "изображ": 3816,
    "изображение</w>": 3817,
    "изображений</w>": 3818,
    "изображения</w>": 3819,
    "изобре": 3820,
    "изра": 3821,
    "израиль": 3822,
    "изу": 3823,
    "изуч": 3824,
    "изучения</w>": 3825,
    "изъ": 3826,
    "ии</w>": 3827,
    "ий</w>": 3828,
    "ил": 3829,
    "ил</w>": 3830,
    "ила</w>": 3831,
    "илась</w>": 3832,
    "илет": 3833,
    "или": 3834,
    "или</w>": 3835,
    "илизации</w>": 3836,
    "илии</w>": 3837,
    "ились</w>": 3838,
    "илищ": 3839,
    "илл": 3840,
    "иллю": 3841,
    "ило": 3842,
    "ило</w>": 3843,
    "илось</w>": 3844,
    "ился</w>": 3845,
    "иль": 3846,
    "иль</w>": 3847,
    "илья": 3848,
    "иля</w>": 3849,
    "им": 3850,
    "им</w>": 3851,
    "име": 3852,
    "имеет</w>": 3853,
    "имен": 3854,
    "имени</w>": 3855,
    "именно</w>": 3856,
    "иметь</w>": 3857,
    "имеют</w>": 3858,
    "ими</w>": 3859,
    "имо": 3860,
    "имо</w>": 3861,
    "имод": 3862,
    "имодей": 3863,
    "имость</w>": 3864,
    "иму": 3865,
    "имуще": 3866,
    "имущества</w>": 3867,
    "имы": 3868,
    "имя</w>": 3869,
    "ин": 3870,
    "ин</w>": 3871,
    "ина</w>": 3872,
    "иначе</w>": 3873,
    "инвали": 3874,
    "инве": 3875,
    "инвест": 3876,
    "инвести": 3877,
    "инвестиции</w>": 3878,
    "инвестиций</w>": 3879,
    "инвестор": 3880,
    "инвесторов</w>": 3881,
    "инг</w>": 3882,
    "индек": 3883,
    "индекс</w>": 3884,
    "инди": 3885,
    "индиви": 3886,
    "индивиду": 3887,
    "инду": 3888,
    "индустрии</w>": 3889,
    "ине</w>": 3890,
    "инжен": 3891,
    "инженер": 3892,
    "иници": 3893,
    "инициати": 3894,
    "инициатив": 3895,
    "иннова": 3896,
    "ино": 3897,
    "ино</w>": 3898,
    "инов</w>": 3899,
    "иногда</w>": 3900,
    "иной</w>": 3901,
    "иностран": 3902,
    "иностранных</w>": 3903,
    "инский</w>": 3904,
    "инского</w>": 3905,
    "инской</w>": 3906,
    "инспек": 3907,
    "инстит": 3908,
    "институ": 3909,
    "институт</w>": 3910,
    "института</w>": 3911,
    "инстру": 3912,
    "инструмент</w>": 3913,
    "инструментов</w>": 3914,
    "инструменты</w>": 3915,
    "инте": 3916,
    "интегра": 3917,
    "интеграции</w>": 3918,
    "интел": 3919,
    "интеллекту": 3920,
    "интен": 3921,
    "интенсив": 3922,
    "интер": 3923,
    "интерв": 3924,
    "интервью</w>": 3925,
    "интере": 3926,
    "интерес": 3927,
    "интерес</w>": 3928,
    "интересно</w>": 3929,
    "интересов": 3930,
    "интересы</w>": 3931,
    "интерн": 3932,
    "интернет</w>": 3933,
    "интернете</w>": 3934,
    "интерпре": 3935,
    "интерфей": 3936,
    "ину</w>": 3937,
    "инф": 3938,
    "инфек": 3939,
    "информа": 3940,
    "информацией</w>": 3941,
    "информации</w>": 3942,
    "информацию</w>": 3943,
    "информация</w>": 3944,
    "инфра": 3945,
    "инфраструктуры</w>": 3946,
    "инци": 3947,
    "инцидент": 3948,
    "инцидент</w>": 3949,
    "инцидента</w>": 3950,
    "ины</w>": 3951,
    "ипоте": 3952,
    "ир": 3953,
    "ира": 3954,
    "ирак": 3955,
    "иран": 3956,
    "ирана</w>": 3957,
    "ирина</w>": 3958,
    "иркут": 3959,
    "ис": 3960,
    "иса</w>": 3961,
    "иси</w>": 3962,
    "иск": 3963,
    "иск</w>": 3964,
    "искать</w>": 3965,
    "исклю": 3966,
    "исключ": 3967,
    "исключительно</w>": 3968,
    "искус": 3969,
    "искусства</w>": 3970,
    "исла": 3971,
    "ислам": 3972,
    "исп": 3973,
    "испан": 3974,
    "испании</w>": 3975,
    "исполн": 3976,
    "исполнения</w>": 3977,
    "исполня": 3978,
    "использов": 3979,
    "использовали</w>": 3980,
    "использование</w>": 3981,
    "использованием</w>": 3982,
    "использовании</w>": 3983,
    "использования</w>": 3984,
    "использовать</w>": 3985,
    "использу": 3986,
    "использует</w>": 3987,
    "используется</w>": 3988,
    "используют</w>": 3989,
    "используются</w>": 3990,
    "используя</w>": 3991,
    "исправ": 3992,
    "испы": 3993,
    "испыт": 3994,
    "испытания</w>": 3995,
    "испыты": 3996,
    "исследов": 3997,
    "исследование</w>": 3998,
    "исследований</w>": 3999,
    "исследования</w>": 4000,
    "исследователь": 4001,
    "ист": 4002,
    "исте": 4003,
    "исто": 4004,
    "истори": 4005,
    "истории</w>": 4006,
    "историю</w>": 4007,
    "история</w>": 4008,
    "источ": 4009,
    "источник</w>": 4010,
    "источника</w>": 4011,
    "источники</w>": 4012,
    "источников</w>": 4013,
    "истреб": 4014,
    "исход": 4015,
    "исче": 4016,
    "исчез": 4017,
    "ись</w>": 4018,
    "ит": 4019,
    "ит</w>": 4020,
    "ита": 4021,
    "ита</w>": 4022,
    "итали": 4023,
    "италии</w>": 4024,
    "италий</w>": 4025,
    "италия</w>": 4026,
    "итальян": 4027,
    "итар": 4028,
    "ите</w>": 4029,
    "ител": 4030,
    "ителей</w>": 4031,
    "ителем</w>": 4032,
    "ители</w>": 4033,
    "итель": 4034,
    "итель</w>": 4035,
    "ительная</w>": 4036,
    "ительно</w>": 4037,
    "ительного</w>": 4038,
    "ительное</w>": 4039,
    "ительной</w>": 4040,
    "ительности</w>": 4041,
    "ительность</w>": 4042,
    "ительную</w>": 4043,
    "ительные</w>": 4044,
    "ительный</w>": 4045,
    "ительным</w>": 4046,
    "ительными</w>": 4047,
    "ительных</w>": 4048,
    "ителю</w>": 4049,
    "ителя</w>": 4050,
    "ителям</w>": 4051,
    "ителями</w>": 4052,
    "итер": 4053,
    "ити": 4054,
    "ити</w>": 4055,
    "итив": 4056,
    "ито": 4057,
    "итов</w>": 4058,
    "итогам</w>": 4059,
    "итоге</w>": 4060,
    "итоги</w>": 4061,
    "ится</w>": 4062,
    "иту": 4063,
    "итуа": 4064,
    "иты</w>": 4065,
    "ить</w>": 4066,
    "иться</w>": 4067,
    "их</w>": 4068,
    "ич</w>": 4069,
    "ищ": 4070,
    "ию": 4071,
    "ию</w>": 4072,
    "июл</w>": 4073,
    "июле</w>": 4074,
    "июля</w>": 4075,
    "июн</w>": 4076,
    "июне</w>": 4077,
    "июня</w>": 4078,
    "ия</w>": 4079,
    "й": 4080,
    "й</w>": 4081,
    "йд": 4082,
    "йдет</w>": 4083,
    "йор": 4084,
    "йская</w>": 4085,
    "йские</w>": 4086,
    "йский</w>": 4087,
    "йским</w>": 4088,
    "йских</w>": 4089,
    "йского</w>": 4090,
    "йской</w>": 4091,
    "йском</w>": 4092,
    "йся</w>": 4093,
    "йте</w>": 4094,
    "йти</w>": 4095,
    "к": 4096,
    "к</w>": 4097,
    "ка": 4098,
    "ка</w>": 4099,
    "каб": 4100,
    "кабин": 4101,
    "кав": 4102,
    "кавказ": 4103,
    "кад": 4104,
    "каддафи</w>": 4105,
    "кает</w>": 4106,
    "каж": 4107,
    "кажд": 4108,
    "каждая</w>": 4109,
    "каждо": 4110,
    "каждого</w>": 4111,
    "каждой</w>": 4112,
    "каждом</w>": 4113,
    "каждый</w>": 4114,
    "кажется</w>": 4115,
    "каз": 4116,
    "каза": 4117,
    "каза</w>": 4118,
    "казан": 4119,
    "казах": 4120,
    "казахстана</w>": 4121,
    "каи": 4122,
    "как</w>": 4123,
    "какая</w>": 4124,
    "какие</w>": 4125,
    "каким</w>": 4126,
    "каких</w>": 4127,
    "какое</w>": 4128,
    "какой</w>": 4129,
    "каком</w>": 4130,
    "какую</w>": 4131,
    "кал": 4132,
    "кали": 4133,
    "каль": 4134,
    "кам": 4135,
    "кам</w>": 4136,
    "камен": 4137,
    "камеры</w>": 4138,
    "ками</w>": 4139,
    "камп": 4140,
    "кампании</w>": 4141,
    "камчат": 4142,
    "кан": 4143,
    "канад": 4144,
    "канал</w>": 4145,
    "канала</w>": 4146,
    "канди": 4147,
    "кандидат": 4148,
    "кандидат</w>": 4149,
    "кандидата</w>": 4150,
    "кандидатов</w>": 4151,
    "кап": 4152,
    "капит": 4153,
    "капитал</w>": 4154,
    "капитала</w>": 4155,
    "кар": 4156,
    "кара": 4157,
    "картин": 4158,
    "картина</w>": 4159,
    "картины</w>": 4160,
    "карты</w>": 4161,
    "карь": 4162,
    "кас": 4163,
    "каса": 4164,
    "касается</w>": 4165,
    "кат": 4166,
    "кат</w>": 4167,
    "катастро": 4168,
    "катастрофы</w>": 4169,
    "катего": 4170,
    "категори": 4171,
    "категории</w>": 4172,
    "кафе</w>": 4173,
    "ках</w>": 4174,
    "каче": 4175,
    "качества</w>": 4176,
    "качестве</w>": 4177,
    "качество</w>": 4178,
    "кашенко</w>": 4179,
    "кая</w>": 4180,
    "кв": 4181,
    "квад": 4182,
    "квадрат": 4183,
    "квадратных</w>": 4184,
    "квали": 4185,
    "кван": 4186,
    "квантов": 4187,
    "квар": 4188,
    "кварт": 4189,
    "квартале</w>": 4190,
    "кварти": 4191,
    "квартир</w>": 4192,
    "квартире</w>": 4193,
    "квартиры</w>": 4194,
    "ке": 4195,
    "ке</w>": 4196,
    "кей": 4197,
    "кер": 4198,
    "кер</w>": 4199,
    "кера</w>": 4200,
    "ки": 4201,
    "ки</w>": 4202,
    "кие</w>": 4203,
    "киев": 4204,
    "киев</w>": 4205,
    "киева</w>": 4206,
    "киеве</w>": 4207,
    "кий</w>": 4208,
    "кило": 4209,
    "килограм": 4210,
    "килограммов</w>": 4211,
    "километ": 4212,
    "километрах</w>": 4213,
    "километров</w>": 4214,
    "ким</w>": 4215,
    "кими</w>": 4216,
    "кин": 4217,
    "кин</w>": 4218,
    "кина</w>": 4219,
    "кине": 4220,
    "кинемато": 4221,
    "кино": 4222,
    "кино</w>": 4223,
    "кио</w>": 4224,
    "кир": 4225,
    "киргизии</w>": 4226,
    "кири": 4227,
    "киров": 4228,
    "кистана</w>": 4229,
    "кит": 4230,
    "кита": 4231,
    "китай": 4232,
    "китай</w>": 4233,
    "китая</w>": 4234,
    "ких</w>": 4235,
    "кл": 4236,
    "кл</w>": 4237,
    "кла": 4238,
    "клад": 4239,
    "класс": 4240,
    "класс</w>": 4241,
    "класса</w>": 4242,
    "класси": 4243,
    "кле": 4244,
    "клет": 4245,
    "кли": 4246,
    "клиентов</w>": 4247,
    "клон": 4248,
    "клу": 4249,
    "клуб</w>": 4250,
    "клуба</w>": 4251,
    "клю": 4252,
    "ключе": 4253,
    "ключевых</w>": 4254,
    "км</w>": 4255,
    "кн": 4256,
    "кни": 4257,
    "книги</w>": 4258,
    "кно": 4259,
    "кнов": 4260,
    "кноп": 4261,
    "кнр</w>": 4262,
    "кну": 4263,
    "ко": 4264,
    "ко</w>": 4265,
    "коали": 4266,
    "коалиции</w>": 4267,
    "кобрит": 4268,
    "кобритании</w>": 4269,
    "кобритания</w>": 4270,
    "ков": 4271,
    "ков</w>": 4272,
    "кова</w>": 4273,
    "кови": 4274,
    "кович</w>": 4275,
    "ковича</w>": 4276,
    "ково</w>": 4277,
    "кового</w>": 4278,
    "ковод": 4279,
    "ковой</w>": 4280,
    "ковский</w>": 4281,
    "ковского</w>": 4282,
    "ковые</w>": 4283,
    "ковым</w>": 4284,
    "ковых</w>": 4285,
    "когда</w>": 4286,
    "кого</w>": 4287,
    "код</w>": 4288,
    "кода</w>": 4289,
    "кодек": 4290,
    "кое</w>": 4291,
    "коз": 4292,
    "кой": 4293,
    "кой</w>": 4294,
    "кол": 4295,
    "кол</w>": 4296,
    "кола": 4297,
    "коле": 4298,
    "колеб": 4299,
    "количе": 4300,
    "количества</w>": 4301,
    "количество</w>": 4302,
    "колле": 4303,
    "коллеги</w>": 4304,
    "коллек": 4305,
    "коллектив": 4306,
    "коло": 4307,
    "коло</w>": 4308,
    "колон": 4309,
    "колонии</w>": 4310,
    "коль": 4311,
    "ком": 4312,
    "ком</w>": 4313,
    "кома</w>": 4314,
    "коман": 4315,
    "команд": 4316,
    "команд</w>": 4317,
    "команда</w>": 4318,
    "команде</w>": 4319,
    "команди": 4320,
    "командой</w>": 4321,
    "команду": 4322,
    "команду</w>": 4323,
    "команды</w>": 4324,
    "комби": 4325,
    "комбина": 4326,
    "комен": 4327,
    "коми": 4328,
    "комиссии</w>": 4329,
    "комиссия</w>": 4330,
    "комит": 4331,
    "комитет</w>": 4332,
    "комитета</w>": 4333,
    "коммен": 4334,
    "коммента": 4335,
    "комментари": 4336,
    "комментарии</w>": 4337,
    "коммер": 4338,
    "комму": 4339,
    "коммун": 4340,
    "коммуни": 4341,
    "коммуника": 4342,
    "комна": 4343,
    "комоти": 4344,
    "комп": 4345,
    "компани": 4346,
    "компанией</w>": 4347,
    "компании</w>": 4348,
    "компаний</w>": 4349,
    "компанию</w>": 4350,
    "компания</w>": 4351,
    "компен": 4352,
    "компенса": 4353,
    "компенсации</w>": 4354,
    "комплек": 4355,
    "комплекс": 4356,
    "комплекс</w>": 4357,
    "комплекса</w>": 4358,
    "компози": 4359,
    "компон": 4360,
    "компью": 4361,
    "компьютер": 4362,
    "кому</w>": 4363,
    "комфор": 4364,
    "кон": 4365,
    "кон</w>": 4366,
    "конгрес": 4367,
    "коне": 4368,
    "конец</w>": 4369,
    "конечно</w>": 4370,
    "конкрет": 4371,
    "конкур": 4372,
    "конкурен": 4373,
    "конкурс</w>": 4374,
    "конкурса</w>": 4375,
    "коно": 4376,
    "консер": 4377,
    "консо": 4378,
    "констан": 4379,
    "константин</w>": 4380,
    "конститу": 4381,
    "конституции</w>": 4382,
    "констру": 4383,
    "конструк": 4384,
    "конструкции</w>": 4385,
    "консуль": 4386,
    "конт": 4387,
    "конта": 4388,
    "контакт": 4389,
    "контактный</w>": 4390,
    "контин": 4391,
    "контра": 4392,
    "контракт</w>": 4393,
    "контракта</w>": 4394,
    "контро": 4395,
    "контроли": 4396,
    "контроль": 4397,
    "контроль</w>": 4398,
    "контроля</w>": 4399,
    "конф": 4400,
    "конферен": 4401,
    "конференции</w>": 4402,
    "конференция</w>": 4403,
    "конфли": 4404,
    "конфликт</w>": 4405,
    "конфликта</w>": 4406,
    "конца</w>": 4407,
    "конце</w>": 4408,
    "концеп": 4409,
    "концер": 4410,
    "концерт</w>": 4411,
    "концу</w>": 4412,
    "конч": 4413,
    "коор": 4414,
    "координа": 4415,
    "коп": 4416,
    "копи": 4417,
    "кор": 4418,
    "кораб": 4419,
    "кораблей</w>": 4420,
    "корабль</w>": 4421,
    "корабля</w>": 4422,
    "корей": 4423,
    "кори": 4424,
    "коро": 4425,
    "королев": 4426,
    "корот": 4427,
    "корпора": 4428,
    "корпоратив": 4429,
    "корпорации</w>": 4430,
    "корпу": 4431,
    "корре": 4432,
    "коррек": 4433,
    "коррект": 4434,
    "корреспон": 4435,
    "корреспондент": 4436,
    "корреспондент</w>": 4437,
    "корруп": 4438,
    "коррупции</w>": 4439,
    "кос": 4440,
    "космиче": 4441,
    "космических</w>": 4442,
    "космического</w>": 4443,
    "космической</w>": 4444,
    "космо": 4445,
    "космонав": 4446,
    "кост": 4447,
    "кости</w>": 4448,
    "кость</w>": 4449,
    "костю": 4450,
    "кот": 4451,
    "кото": 4452,
    "которая</w>": 4453,
    "которо": 4454,
    "которого</w>": 4455,
    "которое</w>": 4456,
    "которой</w>": 4457,
    "котором</w>": 4458,
    "которому</w>": 4459,
    "которую</w>": 4460,
    "которы": 4461,
    "которые</w>": 4462,
    "который</w>": 4463,
    "которым</w>": 4464,
    "которыми</w>": 4465,
    "которых</w>": 4466,
    "коэффици": 4467,
    "кп": 4468,
    "кра": 4469,
    "крае": 4470,
    "крае</w>": 4471,
    "край": 4472,
    "край</w>": 4473,
    "крайне</w>": 4474,
    "крас": 4475,
    "краси": 4476,
    "красно": 4477,
    "краснодар": 4478,
    "краснояр": 4479,
    "крат": 4480,
    "кратно</w>": 4481,
    "кращ": 4482,
    "края</w>": 4483,
    "кре": 4484,
    "кред": 4485,
    "креди": 4486,
    "кредит": 4487,
    "кредитов</w>": 4488,
    "крем": 4489,
    "креп": 4490,
    "крепл": 4491,
    "крест": 4492,
    "крет": 4493,
    "кри": 4494,
    "криз": 4495,
    "кризи": 4496,
    "кризис": 4497,
    "кризис</w>": 4498,
    "кризиса</w>": 4499,
    "кримин": 4500,
    "критер": 4501,
    "крити": 4502,
    "кро": 4503,
    "кров": 4504,
    "крови</w>": 4505,
    "кроме</w>": 4506,
    "кру": 4507,
    "круг</w>": 4508,
    "кругл": 4509,
    "круглый</w>": 4510,
    "круп": 4511,
    "крупней": 4512,
    "крупнейших</w>": 4513,
    "крупные</w>": 4514,
    "крупных</w>": 4515,
    "кры": 4516,
    "крым": 4517,
    "крым</w>": 4518,
    "крыма</w>": 4519,
    "кс": 4520,
    "кс</w>": 4521,
    "кси": 4522,
    "кт": 4523,
    "кт</w>": 4524,
    "кта</w>": 4525,
    "кте</w>": 4526,
    "кто</w>": 4527,
    "ктов</w>": 4528,
    "ктор</w>": 4529,
    "ктора</w>": 4530,
    "кту</w>": 4531,
    "кты</w>": 4532,
    "ку": 4533,
    "ку</w>": 4534,
    "куб": 4535,
    "кубка</w>": 4536,
    "кубо": 4537,
    "кубометров</w>": 4538,
    "куд": 4539,
    "куда</w>": 4540,
    "куз": 4541,
    "кузнец": 4542,
    "куль": 4543,
    "культ": 4544,
    "культур": 4545,
    "культурного</w>": 4546,
    "культуры</w>": 4547,
    "кун": 4548,
    "куп": 4549,
    "купить</w>": 4550,
    "кур": 4551,
    "кури": 4552,
    "куро": 4553,
    "курор": 4554,
    "курс</w>": 4555,
    "курса</w>": 4556,
    "кус</w>": 4557,
    "куси": 4558,
    "кут": 4559,
    "кую</w>": 4560,
    "кх</w>": 4561,
    "кции</w>": 4562,
    "кэ": 4563,
    "л": 4564,
    "л</w>": 4565,
    "ла": 4566,
    "ла</w>": 4567,
    "лабора": 4568,
    "лав": 4569,
    "лавров</w>": 4570,
    "лагер": 4571,
    "лад": 4572,
    "лаз": 4573,
    "лай": 4574,
    "лайн</w>": 4575,
    "лами</w>": 4576,
    "лан": 4577,
    "лана</w>": 4578,
    "ланд": 4579,
    "ландии</w>": 4580,
    "лар": 4581,
    "лась</w>": 4582,
    "лат": 4583,
    "лау": 4584,
    "лауре": 4585,
    "лд": 4586,
    "ле": 4587,
    "ле</w>": 4588,
    "лебед": 4589,
    "лев": 4590,
    "лев</w>": 4591,
    "лева</w>": 4592,
    "левой</w>": 4593,
    "лег": 4594,
    "леген": 4595,
    "легко</w>": 4596,
    "лед": 4597,
    "лее</w>": 4598,
    "лежа": 4599,
    "лежит</w>": 4600,
    "лез": 4601,
    "лей": 4602,
    "лей</w>": 4603,
    "лек": 4604,
    "лекар": 4605,
    "лект": 4606,
    "лекту": 4607,
    "лем</w>": 4608,
    "лен": 4609,
    "лен</w>": 4610,
    "лена</w>": 4611,
    "лени": 4612,
    "ление</w>": 4613,
    "лением</w>": 4614,
    "лении</w>": 4615,
    "лений</w>": 4616,
    "ленин": 4617,
    "ленинград": 4618,
    "лению</w>": 4619,
    "ления</w>": 4620,
    "ленного</w>": 4621,
    "ленной</w>": 4622,
    "ленные</w>": 4623,
    "ленный</w>": 4624,
    "ленных</w>": 4625,
    "лено</w>": 4626,
    "лены</w>": 4627,
    "леони": 4628,
    "лер</w>": 4629,
    "лес": 4630,
    "леса</w>": 4631,
    "лет": 4632,
    "лет</w>": 4633,
    "лета</w>": 4634,
    "лети": 4635,
    "летию</w>": 4636,
    "летия</w>": 4637,
    "летнего</w>": 4638,
    "летней</w>": 4639,
    "летний</w>": 4640,
    "летних</w>": 4641,
    "летняя</w>": 4642,
    "летом</w>": 4643,
    "летряс": 4644,
    "лечение</w>": 4645,
    "лечения</w>": 4646,
    "ли": 4647,
    "ли</w>": 4648,
    "либо</w>": 4649,
    "лив": 4650,
    "ливи": 4651,
    "ливии</w>": 4652,
    "лиги</w>": 4653,
    "лиде": 4654,
    "лидер": 4655,
    "лидер</w>": 4656,
    "лидера</w>": 4657,
    "лидеров</w>": 4658,
    "лидером</w>": 4659,
    "лидеры</w>": 4660,
    "лиди": 4661,
    "лии</w>": 4662,
    "лий</w>": 4663,
    "лик": 4664,
    "ликви": 4665,
    "ликвидации</w>": 4666,
    "ликвиди": 4667,
    "лимпи": 4668,
    "лин": 4669,
    "лин</w>": 4670,
    "лина</w>": 4671,
    "линей": 4672,
    "линии</w>": 4673,
    "лись</w>": 4674,
    "лит": 4675,
    "лит</w>": 4676,
    "лите": 4677,
    "литератур": 4678,
    "лиц": 4679,
    "лиц</w>": 4680,
    "лица</w>": 4681,
    "лицей": 4682,
    "лицен": 4683,
    "лицензи": 4684,
    "лицо</w>": 4685,
    "лич": 4686,
    "личе": 4687,
    "лично</w>": 4688,
    "лиш": 4689,
    "лишения</w>": 4690,
    "лишь</w>": 4691,
    "лия</w>": 4692,
    "лл": 4693,
    "лл</w>": 4694,
    "лли": 4695,
    "ло": 4696,
    "ло</w>": 4697,
    "лоб": 4698,
    "лов": 4699,
    "лов</w>": 4700,
    "лова</w>": 4701,
    "логи": 4702,
    "логии</w>": 4703,
    "лод": 4704,
    "лож": 4705,
    "ложен": 4706,
    "лок": 4707,
    "лок</w>": 4708,
    "локомоти": 4709,
    "лом": 4710,
    "лом</w>": 4711,
    "лон": 4712,
    "лон</w>": 4713,
    "лондо": 4714,
    "лондон": 4715,
    "лондон</w>": 4716,
    "лондоне</w>": 4717,
    "лось</w>": 4718,
    "лот": 4719,
    "лоу": 4720,
    "лся</w>": 4721,
    "лу": 4722,
    "лу</w>": 4723,
    "луж": 4724,
    "лур": 4725,
    "луч": 4726,
    "лучше</w>": 4727,
    "лучшие</w>": 4728,
    "лучший</w>": 4729,
    "лучшим</w>": 4730,
    "лучших</w>": 4731,
    "лы": 4732,
    "лы</w>": 4733,
    "ль": 4734,
    "ль</w>": 4735,
    "льгот": 4736,
    "лько</w>": 4737,
    "лю": 4738,
    "лю</w>": 4739,
    "люб": 4740,
    "люби": 4741,
    "любо": 4742,
    "любов": 4743,
    "любовь</w>": 4744,
    "любой</w>": 4745,
    "любом</w>": 4746,
    "любы": 4747,
    "любые</w>": 4748,
    "люд": 4749,
    "людей</w>": 4750,
    "люди</w>": 4751,
    "людьми</w>": 4752,
    "людям</w>": 4753,
    "ля": 4754,
    "ля</w>": 4755,
    "ляет</w>": 4756,
    "ляется</w>": 4757,
    "лял</w>": 4758,
    "ляли</w>": 4759,
    "лян": 4760,
    "ляр": 4761,
    "лять</w>": 4762,
    "ляться</w>": 4763,
    "лях</w>": 4764,
    "ляции</w>": 4765,
    "ляция</w>": 4766,
    "ляют</w>": 4767,
    "ляются</w>": 4768,
    "ляя</w>": 4769,
    "м": 4770,
    "м</w>": 4771,
    "ма": 4772,
    "ма</w>": 4773,
    "маг": 4774,
    "магаз": 4775,
    "маги": 4776,
    "магистра": 4777,
    "магн": 4778,
    "магнит": 4779,
    "мае</w>": 4780,
    "май": 4781,
    "мак": 4782,
    "макси": 4783,
    "максим": 4784,
    "максим</w>": 4785,
    "максималь": 4786,
    "максимально</w>": 4787,
    "мал": 4788,
    "малень": 4789,
    "мало": 4790,
    "мало</w>": 4791,
    "маль": 4792,
    "мам</w>": 4793,
    "мами</w>": 4794,
    "ман": 4795,
    "ман</w>": 4796,
    "мана</w>": 4797,
    "манд": 4798,
    "мани": 4799,
    "мании</w>": 4800,
    "мания</w>": 4801,
    "мар": 4802,
    "мар</w>": 4803,
    "мара": 4804,
    "мари": 4805,
    "мария</w>": 4806,
    "марк": 4807,
    "марка</w>": 4808,
    "маркет": 4809,
    "марки</w>": 4810,
    "март": 4811,
    "марта</w>": 4812,
    "марте</w>": 4813,
    "марш": 4814,
    "маршру": 4815,
    "мас": 4816,
    "масс": 4817,
    "масси": 4818,
    "массов": 4819,
    "массовые</w>": 4820,
    "массовых</w>": 4821,
    "мастер": 4822,
    "мастер</w>": 4823,
    "масш": 4824,
    "масшта": 4825,
    "масштаб": 4826,
    "мат": 4827,
    "мат</w>": 4828,
    "математи": 4829,
    "матер": 4830,
    "матери": 4831,
    "матери</w>": 4832,
    "материал": 4833,
    "материал</w>": 4834,
    "материалах</w>": 4835,
    "материале</w>": 4836,
    "материалов</w>": 4837,
    "материалы</w>": 4838,
    "мати": 4839,
    "матив": 4840,
    "мато": 4841,
    "матри": 4842,
    "матч</w>": 4843,
    "матча</w>": 4844,
    "матче</w>": 4845,
    "матчей</w>": 4846,
    "мать</w>": 4847,
    "маться</w>": 4848,
    "мах": 4849,
    "мах</w>": 4850,
    "маш": 4851,
    "маши": 4852,
    "машин": 4853,
    "машин</w>": 4854,
    "машина</w>": 4855,
    "машине</w>": 4856,
    "машину</w>": 4857,
    "машины</w>": 4858,
    "мая</w>": 4859,
    "мв": 4860,
    "мвд</w>": 4861,
    "мг": 4862,
    "ме": 4863,
    "ме</w>": 4864,
    "мега": 4865,
    "мед": 4866,
    "мед</w>": 4867,
    "медвед": 4868,
    "медведев</w>": 4869,
    "меди": 4870,
    "медиа</w>": 4871,
    "медий": 4872,
    "медици": 4873,
    "медицин": 4874,
    "медицинской</w>": 4875,
    "медлен": 4876,
    "медленно</w>": 4877,
    "меж": 4878,
    "межд": 4879,
    "между</w>": 4880,
    "международ": 4881,
    "международная</w>": 4882,
    "международного</w>": 4883,
    "международной</w>": 4884,
    "международном</w>": 4885,
    "международные</w>": 4886,
    "международный</w>": 4887,
    "международным</w>": 4888,
    "международных</w>": 4889,
    "мей": 4890,
    "мей</w>": 4891,
    "мекси": 4892,
    "мел": 4893,
    "мель": 4894,
    "мемо": 4895,
    "мен": 4896,
    "мен</w>": 4897,
    "мена</w>": 4898,
    "менед": 4899,
    "менедж": 4900,
    "менее</w>": 4901,
    "мени": 4902,
    "менно</w>": 4903,
    "мент": 4904,
    "мент</w>": 4905,
    "мента</w>": 4906,
    "менте</w>": 4907,
    "ментов</w>": 4908,
    "ментом</w>": 4909,
    "менту</w>": 4910,
    "менты</w>": 4911,
    "мень": 4912,
    "меньше</w>": 4913,
    "меньшей</w>": 4914,
    "меня": 4915,
    "меня</w>": 4916,
    "менять</w>": 4917,
    "мер": 4918,
    "мер</w>": 4919,
    "мера</w>": 4920,
    "мере</w>": 4921,
    "мери": 4922,
    "мерикан": 4923,
    "меро": 4924,
    "меров</w>": 4925,
    "мером</w>": 4926,
    "мероприяти": 4927,
    "мероприятие</w>": 4928,
    "мероприятий</w>": 4929,
    "мероприятия</w>": 4930,
    "мерт": 4931,
    "меру</w>": 4932,
    "меры</w>": 4933,
    "мест": 4934,
    "мест</w>": 4935,
    "места</w>": 4936,
    "местах</w>": 4937,
    "месте</w>": 4938,
    "местного</w>": 4939,
    "местной</w>": 4940,
    "местному</w>": 4941,
    "местные</w>": 4942,
    "местных</w>": 4943,
    "место</w>": 4944,
    "месторо": 4945,
    "месту</w>": 4946,
    "меся": 4947,
    "месяц</w>": 4948,
    "месяца</w>": 4949,
    "месяцев</w>": 4950,
    "мет": 4951,
    "мет</w>": 4952,
    "метал": 4953,
    "мете": 4954,
    "мети": 4955,
    "мето": 4956,
    "метод</w>": 4957,
    "методы</w>": 4958,
    "метр</w>": 4959,
    "метра</w>": 4960,
    "метри": 4961,
    "метро": 4962,
    "метро</w>": 4963,
    "метров": 4964,
    "метров</w>": 4965,
    "метрополит": 4966,
    "меть</w>": 4967,
    "мех": 4968,
    "механи": 4969,
    "механиз": 4970,
    "механизм</w>": 4971,
    "мец": 4972,
    "меч": 4973,
    "меш": 4974,
    "мещ": 4975,
    "ми": 4976,
    "ми</w>": 4977,
    "мигра": 4978,
    "мигран": 4979,
    "мигрантов</w>": 4980,
    "мид</w>": 4981,
    "мии</w>": 4982,
    "микро": 4983,
    "мил": 4984,
    "мила</w>": 4985,
    "мили": 4986,
    "милиции</w>": 4987,
    "милицион": 4988,
    "милли": 4989,
    "миллиар": 4990,
    "миллиарда</w>": 4991,
    "миллиардов</w>": 4992,
    "миллион</w>": 4993,
    "миллиона</w>": 4994,
    "миллионов</w>": 4995,
    "мимо</w>": 4996,
    "мин": 4997,
    "мин</w>": 4998,
    "мина": 4999,
    "мина</w>": 5000,
    "мини": 5001,
    "миним": 5002,
    "минимум</w>": 5003,
    "минист": 5004,
    "министер": 5005,
    "министерства</w>": 5006,
    "министерство</w>": 5007,
    "министр</w>": 5008,
    "министра": 5009,
    "министра</w>": 5010,
    "министров</w>": 5011,
    "министром</w>": 5012,
    "мино": 5013,
    "минобороны</w>": 5014,
    "мину": 5015,
    "минус</w>": 5016,
    "минут": 5017,
    "минут</w>": 5018,
    "минуте</w>": 5019,
    "минуты</w>": 5020,
    "мир": 5021,
    "мир</w>": 5022,
    "мира": 5023,
    "мира</w>": 5024,
    "мире</w>": 5025,
    "мирного</w>": 5026,
    "мирных</w>": 5027,
    "миро": 5028,
    "миров": 5029,
    "мирового</w>": 5030,
    "мировой</w>": 5031,
    "мировых</w>": 5032,
    "миру</w>": 5033,
    "миссии</w>": 5034,
    "мист": 5035,
    "мися</w>": 5036,
    "мит": 5037,
    "мит</w>": 5038,
    "митин": 5039,
    "митинг</w>": 5040,
    "миха": 5041,
    "михаил</w>": 5042,
    "михаила</w>": 5043,
    "миче": 5044,
    "мия</w>": 5045,
    "мл": 5046,
    "млад": 5047,
    "млн</w>": 5048,
    "млрд</w>": 5049,
    "мн": 5050,
    "мне</w>": 5051,
    "мнение</w>": 5052,
    "мнению</w>": 5053,
    "мнения</w>": 5054,
    "мно": 5055,
    "многи": 5056,
    "многие</w>": 5057,
    "многих</w>": 5058,
    "много": 5059,
    "много</w>": 5060,
    "многое</w>": 5061,
    "многочисл": 5062,
    "множе": 5063,
    "множество</w>": 5064,
    "мной</w>": 5065,
    "мо": 5066,
    "мо</w>": 5067,
    "моб": 5068,
    "мобиль": 5069,
    "мов</w>": 5070,
    "мова</w>": 5071,
    "мог": 5072,
    "мог</w>": 5073,
    "могла</w>": 5074,
    "могли</w>": 5075,
    "могло</w>": 5076,
    "мого</w>": 5077,
    "могу</w>": 5078,
    "могут</w>": 5079,
    "мод": 5080,
    "моделей</w>": 5081,
    "модели": 5082,
    "модели</w>": 5083,
    "модель": 5084,
    "модель</w>": 5085,
    "модерни": 5086,
    "модернизации</w>": 5087,
    "моди": 5088,
    "моду": 5089,
    "мое</w>": 5090,
    "моей</w>": 5091,
    "мож": 5092,
    "можем</w>": 5093,
    "может</w>": 5094,
    "можете</w>": 5095,
    "можно</w>": 5096,
    "моз": 5097,
    "мозга</w>": 5098,
    "мой</w>": 5099,
    "мок</w>": 5100,
    "мол": 5101,
    "молдав": 5102,
    "моле": 5103,
    "молеку": 5104,
    "моло": 5105,
    "молод": 5106,
    "молодеж": 5107,
    "молодежи</w>": 5108,
    "молодой</w>": 5109,
    "молодых</w>": 5110,
    "молч": 5111,
    "моль": 5112,
    "мом</w>": 5113,
    "момент</w>": 5114,
    "момента</w>": 5115,
    "мон": 5116,
    "мона": 5117,
    "монито": 5118,
    "мониторин": 5119,
    "моно": 5120,
    "мор": 5121,
    "мораль": 5122,
    "море</w>": 5123,
    "моро": 5124,
    "мороз": 5125,
    "морского</w>": 5126,
    "морской</w>": 5127,
    "моря</w>": 5128,
    "мос": 5129,
    "мосгор": 5130,
    "моск": 5131,
    "москва</w>": 5132,
    "москве</w>": 5133,
    "москви": 5134,
    "москву</w>": 5135,
    "москвы</w>": 5136,
    "москов": 5137,
    "московская</w>": 5138,
    "московский</w>": 5139,
    "московского</w>": 5140,
    "московской</w>": 5141,
    "московском</w>": 5142,
    "московскому</w>": 5143,
    "мост</w>": 5144,
    "моста</w>": 5145,
    "мости</w>": 5146,
    "мость</w>": 5147,
    "моти": 5148,
    "мошен": 5149,
    "мошенниче": 5150,
    "мощ": 5151,
    "моя</w>": 5152,
    "мп": 5153,
    "мпи": 5154,
    "мс</w>": 5155,
    "мск</w>": 5156,
    "мся</w>": 5157,
    "му": 5158,
    "му</w>": 5159,
    "муж": 5160,
    "мужчи": 5161,
    "мужчин</w>": 5162,
    "мужчина</w>": 5163,
    "мужчины</w>": 5164,
    "муз": 5165,
    "музе": 5166,
    "музее</w>": 5167,
    "музей</w>": 5168,
    "музея</w>": 5169,
    "музы": 5170,
    "музык": 5171,
    "музыкан": 5172,
    "музыки</w>": 5173,
    "муль": 5174,
    "мульти": 5175,
    "мультимедий": 5176,
    "муля": 5177,
    "мум</w>": 5178,
    "муници": 5179,
    "муницип": 5180,
    "муниципальных</w>": 5181,
    "мур": 5182,
    "мусо": 5183,
    "мусуль": 5184,
    "мусульман": 5185,
    "мут</w>": 5186,
    "мую</w>": 5187,
    "мчс</w>": 5188,
    "мы": 5189,
    "мы</w>": 5190,
    "мые</w>": 5191,
    "мый</w>": 5192,
    "мым</w>": 5193,
    "мысл": 5194,
    "мых</w>": 5195,
    "мыш": 5196,
    "мышлен": 5197,
    "мь": 5198,
    "мэ": 5199,
    "мэр</w>": 5200,
    "мэра</w>": 5201,
    "мэрии</w>": 5202,
    "мя": 5203,
    "мя</w>": 5204,
    "мяг": 5205,
    "мяч</w>": 5206,
    "н": 5207,
    "н</w>": 5208,
    "на": 5209,
    "на</w>": 5210,
    "наб": 5211,
    "набереж": 5212,
    "наблю": 5213,
    "наблюд": 5214,
    "наблюдения</w>": 5215,
    "набор</w>": 5216,
    "набра": 5217,
    "нав": 5218,
    "навер": 5219,
    "наверное</w>": 5220,
    "навига": 5221,
    "навод": 5222,
    "навы": 5223,
    "награ": 5224,
    "награжд": 5225,
    "нагруз": 5226,
    "над": 5227,
    "над</w>": 5228,
    "наде": 5229,
    "надеюсь</w>": 5230,
    "надзор": 5231,
    "надзор</w>": 5232,
    "надзора</w>": 5233,
    "надий</w>": 5234,
    "надле": 5235,
    "надо</w>": 5236,
    "наз": 5237,
    "наза": 5238,
    "назад</w>": 5239,
    "назв": 5240,
    "назвал</w>": 5241,
    "назвали</w>": 5242,
    "название</w>": 5243,
    "названием</w>": 5244,
    "назвать</w>": 5245,
    "назем": 5246,
    "назнач": 5247,
    "назначен</w>": 5248,
    "назначения</w>": 5249,
    "называ": 5250,
    "называется</w>": 5251,
    "называют</w>": 5252,
    "наи": 5253,
    "наиболее</w>": 5254,
    "най": 5255,
    "найден": 5256,
    "найти</w>": 5257,
    "наказ": 5258,
    "наказание</w>": 5259,
    "наказания</w>": 5260,
    "накан": 5261,
    "накануне</w>": 5262,
    "нако": 5263,
    "нако</w>": 5264,
    "наконец</w>": 5265,
    "нал": 5266,
    "нали": 5267,
    "наличи": 5268,
    "наличие</w>": 5269,
    "нало": 5270,
    "налогов": 5271,
    "налогов</w>": 5272,
    "нам</w>": 5273,
    "наме": 5274,
    "намер": 5275,
    "намерен</w>": 5276,
    "намерена</w>": 5277,
    "намерении</w>": 5278,
    "намерены</w>": 5279,
    "нами</w>": 5280,
    "нан": 5281,
    "наоборот</w>": 5282,
    "напа": 5283,
    "напад": 5284,
    "напада": 5285,
    "нападение</w>": 5286,
    "нападения</w>": 5287,
    "напис": 5288,
    "написал</w>": 5289,
    "напо": 5290,
    "напомина": 5291,
    "напоминает</w>": 5292,
    "напомн": 5293,
    "напомнил</w>": 5294,
    "направ": 5295,
    "направл": 5296,
    "направлен": 5297,
    "направлении</w>": 5298,
    "направления</w>": 5299,
    "направлены</w>": 5300,
    "например</w>": 5301,
    "напря": 5302,
    "напрямую</w>": 5303,
    "нар": 5304,
    "нарко": 5305,
    "наркоти": 5306,
    "наркотиков</w>": 5307,
    "народ": 5308,
    "народа</w>": 5309,
    "народного</w>": 5310,
    "нару": 5311,
    "наруш": 5312,
    "нарушение</w>": 5313,
    "нарушении</w>": 5314,
    "нарушений</w>": 5315,
    "нарушения</w>": 5316,
    "наря": 5317,
    "нас</w>": 5318,
    "насел": 5319,
    "населения</w>": 5320,
    "населенных</w>": 5321,
    "насил": 5322,
    "насилия</w>": 5323,
    "насиль": 5324,
    "насколько</w>": 5325,
    "наслед": 5326,
    "наследия</w>": 5327,
    "наста": 5328,
    "настаи": 5329,
    "настолько</w>": 5330,
    "настоя": 5331,
    "настоящее</w>": 5332,
    "настоящий</w>": 5333,
    "настро": 5334,
    "насчит": 5335,
    "нат": 5336,
    "наталья</w>": 5337,
    "нато": 5338,
    "нато</w>": 5339,
    "нау": 5340,
    "наук</w>": 5341,
    "науки</w>": 5342,
    "науч": 5343,
    "научно</w>": 5344,
    "научных</w>": 5345,
    "нах</w>": 5346,
    "наход": 5347,
    "находив": 5348,
    "находились</w>": 5349,
    "находился</w>": 5350,
    "находится</w>": 5351,
    "находиться</w>": 5352,
    "находятся</w>": 5353,
    "находящи": 5354,
    "национ": 5355,
    "национали": 5356,
    "национального</w>": 5357,
    "национальной</w>": 5358,
    "национальный</w>": 5359,
    "национальных</w>": 5360,
    "нач": 5361,
    "начал</w>": 5362,
    "начала</w>": 5363,
    "началась</w>": 5364,
    "начале</w>": 5365,
    "начали</w>": 5366,
    "начались</w>": 5367,
    "начало</w>": 5368,
    "началось</w>": 5369,
    "начался</w>": 5370,
    "началь": 5371,
    "начальник</w>": 5372,
    "начальника</w>": 5373,
    "начально</w>": 5374,
    "начать</w>": 5375,
    "наче</w>": 5376,
    "начи": 5377,
    "начин": 5378,
    "начина": 5379,
    "начинает</w>": 5380,
    "начинается</w>": 5381,
    "начиная</w>": 5382,
    "начнет</w>": 5383,
    "начнется</w>": 5384,
    "наш": 5385,
    "наш</w>": 5386,
    "наша</w>": 5387,
    "наше</w>": 5388,
    "нашего</w>": 5389,
    "нашей</w>": 5390,
    "нашем</w>": 5391,
    "наши</w>": 5392,
    "нашим</w>": 5393,
    "наших</w>": 5394,
    "нашли</w>": 5395,
    "нашу</w>": 5396,
    "ная</w>": 5397,
    "нград": 5398,
    "не": 5399,
    "не</w>": 5400,
    "небольшой</w>": 5401,
    "нев": 5402,
    "невозможно</w>": 5403,
    "невосто": 5404,
    "негат": 5405,
    "негатив": 5406,
    "него</w>": 5407,
    "недав": 5408,
    "недавно</w>": 5409,
    "недалеко</w>": 5410,
    "недвижи": 5411,
    "недвижимости</w>": 5412,
    "недел": 5413,
    "неделе</w>": 5414,
    "недели</w>": 5415,
    "недель</w>": 5416,
    "неделю</w>": 5417,
    "недо": 5418,
    "недоволь": 5419,
    "недостаточно</w>": 5420,
    "нее</w>": 5421,
    "неж": 5422,
    "независи": 5423,
    "независимости</w>": 5424,
    "незакон": 5425,
    "незаконно</w>": 5426,
    "неизвест": 5427,
    "неизвестно</w>": 5428,
    "ней": 5429,
    "ней</w>": 5430,
    "нейро": 5431,
    "нейрон": 5432,
    "некоторое</w>": 5433,
    "некоторые</w>": 5434,
    "некоторых</w>": 5435,
    "нел": 5436,
    "неле": 5437,
    "нелег": 5438,
    "нель": 5439,
    "нельзя</w>": 5440,
    "нем": 5441,
    "нем</w>": 5442,
    "немец": 5443,
    "немного</w>": 5444,
    "нему</w>": 5445,
    "нен": 5446,
    "нение</w>": 5447,
    "нения</w>": 5448,
    "необ": 5449,
    "необход": 5450,
    "необходи": 5451,
    "необходимо": 5452,
    "необходимо</w>": 5453,
    "необходимости</w>": 5454,
    "необходимость</w>": 5455,
    "необходимы": 5456,
    "необходимые</w>": 5457,
    "необы": 5458,
    "неодно": 5459,
    "неоднократно</w>": 5460,
    "неожи": 5461,
    "непод": 5462,
    "непосред": 5463,
    "непосредственно</w>": 5464,
    "непре": 5465,
    "непри": 5466,
    "нер": 5467,
    "нер</w>": 5468,
    "нера</w>": 5469,
    "нес": 5470,
    "несет</w>": 5471,
    "неско": 5472,
    "несколь": 5473,
    "нескольких</w>": 5474,
    "несколько</w>": 5475,
    "несмотря</w>": 5476,
    "несовершен": 5477,
    "несовершенно": 5478,
    "нет": 5479,
    "нет</w>": 5480,
    "нется</w>": 5481,
    "неу": 5482,
    "неуда": 5483,
    "неф": 5484,
    "нефте": 5485,
    "нефти</w>": 5486,
    "нефть</w>": 5487,
    "нефтя": 5488,
    "нец": 5489,
    "неш": 5490,
    "ни": 5491,
    "ни</w>": 5492,
    "нибудь</w>": 5493,
    "нив</w>": 5494,
    "ние</w>": 5495,
    "нием</w>": 5496,
    "ниж": 5497,
    "ниже": 5498,
    "ниже</w>": 5499,
    "низ": 5500,
    "нии</w>": 5501,
    "ний</w>": 5502,
    "ник": 5503,
    "ник</w>": 5504,
    "ника": 5505,
    "ника</w>": 5506,
    "никак</w>": 5507,
    "никаких</w>": 5508,
    "никакого</w>": 5509,
    "никакой</w>": 5510,
    "никам</w>": 5511,
    "никами</w>": 5512,
    "никах</w>": 5513,
    "нике</w>": 5514,
    "ники</w>": 5515,
    "ников</w>": 5516,
    "никова</w>": 5517,
    "никогда</w>": 5518,
    "никола": 5519,
    "николай</w>": 5520,
    "ником</w>": 5521,
    "никто</w>": 5522,
    "нику</w>": 5523,
    "ним": 5524,
    "ним</w>": 5525,
    "ними</w>": 5526,
    "нин": 5527,
    "нин</w>": 5528,
    "нина</w>": 5529,
    "нит": 5530,
    "нит</w>": 5531,
    "нито": 5532,
    "них</w>": 5533,
    "ниц": 5534,
    "ниц</w>": 5535,
    "ница</w>": 5536,
    "ницах</w>": 5537,
    "нице</w>": 5538,
    "ницей</w>": 5539,
    "ници": 5540,
    "ницу</w>": 5541,
    "ницы</w>": 5542,
    "нич": 5543,
    "ниче": 5544,
    "ничего</w>": 5545,
    "нию</w>": 5546,
    "ния</w>": 5547,
    "но": 5548,
    "но</w>": 5549,
    "нов": 5550,
    "нов</w>": 5551,
    "нова": 5552,
    "нова</w>": 5553,
    "новая</w>": 5554,
    "новения</w>": 5555,
    "нови": 5556,
    "ново": 5557,
    "нового</w>": 5558,
    "новогод": 5559,
    "новое</w>": 5560,
    "новой</w>": 5561,
    "новом</w>": 5562,
    "новому</w>": 5563,
    "новосибир": 5564,
    "новосибирск</w>": 5565,
    "новостей</w>": 5566,
    "новости</w>": 5567,
    "новременно</w>": 5568,
    "новую</w>": 5569,
    "новые</w>": 5570,
    "новый</w>": 5571,
    "новым</w>": 5572,
    "новых</w>": 5573,
    "новь</w>": 5574,
    "ного</w>": 5575,
    "нодорож": 5576,
    "ное</w>": 5577,
    "ной</w>": 5578,
    "нок</w>": 5579,
    "нологи": 5580,
    "ном</w>": 5581,
    "номер</w>": 5582,
    "номина": 5583,
    "ному</w>": 5584,
    "нор": 5585,
    "норве": 5586,
    "нори": 5587,
    "норм": 5588,
    "нормы</w>": 5589,
    "нос": 5590,
    "носит</w>": 5591,
    "носить</w>": 5592,
    "ност": 5593,
    "ностей</w>": 5594,
    "ности</w>": 5595,
    "ностран": 5596,
    "ность</w>": 5597,
    "ностью</w>": 5598,
    "ностями</w>": 5599,
    "ностях</w>": 5600,
    "ночь</w>": 5601,
    "ночью</w>": 5602,
    "ноя</w>": 5603,
    "ноябре</w>": 5604,
    "ноября</w>": 5605,
    "нрав": 5606,
    "ну": 5607,
    "ну</w>": 5608,
    "нуж": 5609,
    "нужд": 5610,
    "нужен</w>": 5611,
    "нужна</w>": 5612,
    "нужно</w>": 5613,
    "нужны</w>": 5614,
    "нул</w>": 5615,
    "нут</w>": 5616,
    "нуть</w>": 5617,
    "ную</w>": 5618,
    "ны": 5619,
    "ны</w>": 5620,
    "ные</w>": 5621,
    "ный</w>": 5622,
    "ным</w>": 5623,
    "ными</w>": 5624,
    "ныне</w>": 5625,
    "нынеш": 5626,
    "нынешнего</w>": 5627,
    "ных</w>": 5628,
    "нь</w>": 5629,
    "нью</w>": 5630,
    "ню": 5631,
    "ню</w>": 5632,
    "нюю</w>": 5633,
    "ня": 5634,
    "ня</w>": 5635,
    "нями</w>": 5636,
    "нях</w>": 5637,
    "няш": 5638,
    "няя</w>": 5639,
    "о": 5640,
    "о</w>": 5641,
    "оао</w>": 5642,
    "об": 5643,
    "об</w>": 5644,
    "оба": 5645,
    "оба</w>": 5646,
    "обама</w>": 5647,
    "обвин": 5648,
    "обвинение</w>": 5649,
    "обвинения</w>": 5650,
    "обвиня": 5651,
    "обвиняемого</w>": 5652,
    "обвиняют</w>": 5653,
    "обе": 5654,
    "обе</w>": 5655,
    "обед": 5656,
    "обез": 5657,
    "обеих</w>": 5658,
    "обер": 5659,
    "обеспе": 5660,
    "обеспечение</w>": 5661,
    "обеспечения</w>": 5662,
    "обеспечи": 5663,
    "обеспечить</w>": 5664,
    "обещ": 5665,
    "обжал": 5666,
    "обзор": 5667,
    "обла": 5668,
    "облад": 5669,
    "обладает</w>": 5670,
    "област": 5671,
    "области</w>": 5672,
    "областного</w>": 5673,
    "областной</w>": 5674,
    "область</w>": 5675,
    "областях</w>": 5676,
    "обли": 5677,
    "облига": 5678,
    "обмен</w>": 5679,
    "обнарод": 5680,
    "обнару": 5681,
    "обнаруж": 5682,
    "обнаружено</w>": 5683,
    "обнаружены</w>": 5684,
    "обнаружили</w>": 5685,
    "обнов": 5686,
    "обо": 5687,
    "обод": 5688,
    "обоз": 5689,
    "обозрев": 5690,
    "оборо": 5691,
    "оборон": 5692,
    "обороны</w>": 5693,
    "оборот</w>": 5694,
    "оборуд": 5695,
    "оборудов": 5696,
    "оборудование</w>": 5697,
    "оборудования</w>": 5698,
    "обоснов": 5699,
    "обра": 5700,
    "обработ": 5701,
    "обработки</w>": 5702,
    "ображ": 5703,
    "образ": 5704,
    "образов": 5705,
    "образование</w>": 5706,
    "образования</w>": 5707,
    "образом</w>": 5708,
    "образу": 5709,
    "обрат": 5710,
    "обратились</w>": 5711,
    "обратился</w>": 5712,
    "обратно</w>": 5713,
    "обраться</w>": 5714,
    "обращ": 5715,
    "обращение</w>": 5716,
    "обращения</w>": 5717,
    "обре": 5718,
    "обсе</w>": 5719,
    "обследов": 5720,
    "обслу": 5721,
    "обстанов": 5722,
    "обстоятель": 5723,
    "обстоятельства</w>": 5724,
    "обстре": 5725,
    "обсуд": 5726,
    "обсудить</w>": 5727,
    "обсужд": 5728,
    "обсуждения</w>": 5729,
    "обуч": 5730,
    "обуча": 5731,
    "обучение</w>": 5732,
    "обучения</w>": 5733,
    "общ": 5734,
    "общая</w>": 5735,
    "обще": 5736,
    "обще</w>": 5737,
    "общего</w>": 5738,
    "общее</w>": 5739,
    "общей</w>": 5740,
    "общем</w>": 5741,
    "общества</w>": 5742,
    "обществен": 5743,
    "общественного</w>": 5744,
    "общественной</w>": 5745,
    "общественных</w>": 5746,
    "общество</w>": 5747,
    "общий</w>": 5748,
    "общую</w>": 5749,
    "объ": 5750,
    "объе": 5751,
    "объедин": 5752,
    "объединения</w>": 5753,
    "объек": 5754,
    "объект": 5755,
    "объект</w>": 5756,
    "объекта</w>": 5757,
    "объектив": 5758,
    "объектов</w>": 5759,
    "объекты</w>": 5760,
    "объем": 5761,
    "объем</w>": 5762,
    "объема</w>": 5763,
    "объеме</w>": 5764,
    "объяв": 5765,
    "объявил</w>": 5766,
    "объявила</w>": 5767,
    "объявили</w>": 5768,
    "объявлен</w>": 5769,
    "объясн": 5770,
    "объяснил</w>": 5771,
    "объясня": 5772,
    "обы": 5773,
    "обыгра": 5774,
    "обычно</w>": 5775,
    "обяз": 5776,
    "обязан": 5777,
    "обязанности</w>": 5778,
    "обязатель": 5779,
    "обязательно</w>": 5780,
    "обязательства</w>": 5781,
    "ов": 5782,
    "ов</w>": 5783,
    "ова</w>": 5784,
    "овал</w>": 5785,
    "овали</w>": 5786,
    "ован</w>": 5787,
    "ование</w>": 5788,
    "овании</w>": 5789,
    "ования</w>": 5790,
    "овать</w>": 5791,
    "овая</w>": 5792,
    "ове": 5793,
    "ови": 5794,
    "ович</w>": 5795,
    "ово": 5796,
    "ово</w>": 5797,
    "ового</w>": 5798,
    "овое</w>": 5799,
    "овой</w>": 5800,
    "овок</w>": 5801,
    "оволь": 5802,
    "овом</w>": 5803,
    "овому</w>": 5804,
    "овский</w>": 5805,
    "овского</w>": 5806,
    "овской</w>": 5807,
    "ову</w>": 5808,
    "овую</w>": 5809,
    "овые</w>": 5810,
    "овый</w>": 5811,
    "овым</w>": 5812,
    "овых</w>": 5813,
    "ог": 5814,
    "огла": 5815,
    "огне": 5816,
    "огнестрель": 5817,
    "огня</w>": 5818,
    "ого</w>": 5819,
    "огон": 5820,
    "огонь</w>": 5821,
    "огра": 5822,
    "ограни": 5823,
    "огранич": 5824,
    "ограничен": 5825,
    "ограничения</w>": 5826,
    "ографи": 5827,
    "огром": 5828,
    "од": 5829,
    "од</w>": 5830,
    "оде": 5831,
    "одерж": 5832,
    "оди": 5833,
    "один</w>": 5834,
    "одина": 5835,
    "одино": 5836,
    "одна</w>": 5837,
    "однако</w>": 5838,
    "одним</w>": 5839,
    "одно": 5840,
    "одно</w>": 5841,
    "одновременно</w>": 5842,
    "одного</w>": 5843,
    "одной</w>": 5844,
    "одном</w>": 5845,
    "одному</w>": 5846,
    "одну</w>": 5847,
    "одоб": 5848,
    "ое</w>": 5849,
    "ож": 5850,
    "ожи": 5851,
    "ожид": 5852,
    "ожида": 5853,
    "ожидается</w>": 5854,
    "оз": 5855,
    "озна": 5856,
    "ознаком": 5857,
    "означает</w>": 5858,
    "ой</w>": 5859,
    "ок": 5860,
    "ок</w>": 5861,
    "оказ": 5862,
    "оказалась</w>": 5863,
    "оказались</w>": 5864,
    "оказалось</w>": 5865,
    "оказался</w>": 5866,
    "оке": 5867,
    "океан": 5868,
    "около</w>": 5869,
    "оконч": 5870,
    "окончания</w>": 5871,
    "окру": 5872,
    "округа</w>": 5873,
    "округе</w>": 5874,
    "окружа": 5875,
    "окружающей</w>": 5876,
    "окт": 5877,
    "окт</w>": 5878,
    "октябре</w>": 5879,
    "октября</w>": 5880,
    "ол": 5881,
    "оле": 5882,
    "олег</w>": 5883,
    "олимпи": 5884,
    "олимпийских</w>": 5885,
    "оло": 5886,
    "ологи": 5887,
    "оль": 5888,
    "ольга</w>": 5889,
    "олю": 5890,
    "ом": 5891,
    "ом</w>": 5892,
    "ому</w>": 5893,
    "он": 5894,
    "он</w>": 5895,
    "она": 5896,
    "она</w>": 5897,
    "онах</w>": 5898,
    "оне": 5899,
    "оне</w>": 5900,
    "они": 5901,
    "они</w>": 5902,
    "онлайн</w>": 5903,
    "оно</w>": 5904,
    "онов</w>": 5905,
    "оном</w>": 5906,
    "оны</w>": 5907,
    "оо": 5908,
    "оон</w>": 5909,
    "ооо</w>": 5910,
    "оп": 5911,
    "опа": 5912,
    "опас": 5913,
    "опаса": 5914,
    "опасности</w>": 5915,
    "опер": 5916,
    "опера": 5917,
    "оператив": 5918,
    "оперативно</w>": 5919,
    "операции</w>": 5920,
    "операций</w>": 5921,
    "операцию</w>": 5922,
    "операция</w>": 5923,
    "опис": 5924,
    "опла": 5925,
    "опол": 5926,
    "ополчен": 5927,
    "оппози": 5928,
    "оппозиции</w>": 5929,
    "оппозицион": 5930,
    "оппозиция</w>": 5931,
    "оправ": 5932,
    "определ": 5933,
    "определить</w>": 5934,
    "опро": 5935,
    "опровер": 5936,
    "опти": 5937,
    "оптим": 5938,
    "оптими": 5939,
    "опубликов": 5940,
    "опы": 5941,
    "опыт": 5942,
    "опыт</w>": 5943,
    "ор": 5944,
    "ор</w>": 5945,
    "ора</w>": 5946,
    "орбит": 5947,
    "орг": 5948,
    "орган": 5949,
    "органами</w>": 5950,
    "органах</w>": 5951,
    "органи": 5952,
    "организа": 5953,
    "организаторов</w>": 5954,
    "организаторы</w>": 5955,
    "организации</w>": 5956,
    "организаций</w>": 5957,
    "организацию</w>": 5958,
    "организация</w>": 5959,
    "организов": 5960,
    "органов</w>": 5961,
    "органы</w>": 5962,
    "орги": 5963,
    "ордж": 5964,
    "орен": 5965,
    "ори": 5966,
    "оригин": 5967,
    "ориен": 5968,
    "ориенти": 5969,
    "орит": 5970,
    "орке": 5971,
    "оро": 5972,
    "ору": 5973,
    "оружи": 5974,
    "оружие</w>": 5975,
    "оружия</w>": 5976,
    "ос": 5977,
    "ос</w>": 5978,
    "осад": 5979,
    "осв": 5980,
    "освещ": 5981,
    "осво": 5982,
    "освобо": 5983,
    "освобод": 5984,
    "освобожд": 5985,
    "осен": 5986,
    "осенью</w>": 5987,
    "оси": 5988,
    "оскорб": 5989,
    "осмо": 5990,
    "осна": 5991,
    "оснаб": 5992,
    "оснащ": 5993,
    "основ": 5994,
    "основании</w>": 5995,
    "основе</w>": 5996,
    "основная</w>": 5997,
    "основной</w>": 5998,
    "основном</w>": 5999,
    "основные</w>": 6000,
    "основным</w>": 6001,
    "основных</w>": 6002,
    "особ": 6003,
    "особенно</w>": 6004,
    "особо": 6005,
    "особо</w>": 6006,
    "ост": 6007,
    "оста": 6008,
    "остав": 6009,
    "остается</w>": 6010,
    "остались</w>": 6011,
    "осталось</w>": 6012,
    "остался</w>": 6013,
    "остальные</w>": 6014,
    "остальных</w>": 6015,
    "остан": 6016,
    "останется</w>": 6017,
    "останов": 6018,
    "остаются</w>": 6019,
    "осторо": 6020,
    "остров": 6021,
    "остров</w>": 6022,
    "острова</w>": 6023,
    "острове</w>": 6024,
    "осу": 6025,
    "осужд": 6026,
    "осуществ": 6027,
    "ось</w>": 6028,
    "от": 6029,
    "от</w>": 6030,
    "ота</w>": 6031,
    "отв": 6032,
    "отве": 6033,
    "отвер": 6034,
    "ответ": 6035,
    "ответ</w>": 6036,
    "ответа</w>": 6037,
    "ответил</w>": 6038,
    "ответствен": 6039,
    "ответственности</w>": 6040,
    "ответственность</w>": 6041,
    "отвечает</w>": 6042,
    "отвечая</w>": 6043,
    "отдел": 6044,
    "отдела</w>": 6045,
    "отделения</w>": 6046,
    "отдель": 6047,
    "отдельные</w>": 6048,
    "отдельных</w>": 6049,
    "отды": 6050,
    "отдыха</w>": 6051,
    "оте": 6052,
    "отец</w>": 6053,
    "отече": 6054,
    "отечественной</w>": 6055,
    "отзы": 6056,
    "оти": 6057,
    "отказ": 6058,
    "отказ</w>": 6059,
    "отказались</w>": 6060,
    "отказался</w>": 6061,
    "отказаться</w>": 6062,
    "отклон": 6063,
    "отклю": 6064,
    "откро": 6065,
    "откроется</w>": 6066,
    "откры": 6067,
    "открыл</w>": 6068,
    "открытие</w>": 6069,
    "открытия</w>": 6070,
    "открыты": 6071,
    "открытых</w>": 6072,
    "открыть</w>": 6073,
    "откуда</w>": 6074,
    "отли": 6075,
    "отлич": 6076,
    "отличие</w>": 6077,
    "отлож": 6078,
    "отме": 6079,
    "отмен": 6080,
    "отмены</w>": 6081,
    "отмет": 6082,
    "отметив</w>": 6083,
    "отметил</w>": 6084,
    "отметила</w>": 6085,
    "отметили</w>": 6086,
    "отметить</w>": 6087,
    "отмеч": 6088,
    "отмеча": 6089,
    "отмечает</w>": 6090,
    "отмечается</w>": 6091,
    "отмечают</w>": 6092,
    "отно": 6093,
    "относ": 6094,
    "относительно</w>": 6095,
    "относится</w>": 6096,
    "отнош": 6097,
    "отношение</w>": 6098,
    "отношении</w>": 6099,
    "отношений</w>": 6100,
    "отношению</w>": 6101,
    "отношения</w>": 6102,
    "отношениях</w>": 6103,
    "ото": 6104,
    "ото</w>": 6105,
    "отоб": 6106,
    "отов</w>": 6107,
    "отправ": 6108,
    "отра": 6109,
    "отрав": 6110,
    "отраж": 6111,
    "отрасл": 6112,
    "отрасли</w>": 6113,
    "отриц": 6114,
    "отстав": 6115,
    "отставку</w>": 6116,
    "отстран": 6117,
    "отсут": 6118,
    "отсутствие</w>": 6119,
    "отчет": 6120,
    "оты</w>": 6121,
    "оф": 6122,
    "офи": 6123,
    "офис": 6124,
    "официаль": 6125,
    "официально</w>": 6126,
    "официального</w>": 6127,
    "официальном</w>": 6128,
    "официальный</w>": 6129,
    "официальным</w>": 6130,
    "официальных</w>": 6131,
    "оформ": 6132,
    "ох": 6133,
    "охот": 6134,
    "охра": 6135,
    "охран": 6136,
    "охраны</w>": 6137,
    "оцен": 6138,
    "оцени": 6139,
    "оценивается</w>": 6140,
    "оценить</w>": 6141,
    "оценкам</w>": 6142,
    "оценке</w>": 6143,
    "оценки</w>": 6144,
    "оценку</w>": 6145,
    "оч": 6146,
    "оче": 6147,
    "очевид": 6148,
    "очевидно</w>": 6149,
    "очень</w>": 6150,
    "очеред": 6151,
    "очереди</w>": 6152,
    "очередной</w>": 6153,
    "очередь</w>": 6154,
    "очков</w>": 6155,
    "ош": 6156,
    "оши": 6157,
    "ошиб": 6158,
    "ошибки</w>": 6159,
    "ошибок</w>": 6160,
    "ощ": 6161,
    "ощущ": 6162,
    "п": 6163,
    "п</w>": 6164,
    "па": 6165,
    "па</w>": 6166,
    "пав": 6167,
    "павел</w>": 6168,
    "пад": 6169,
    "падение</w>": 6170,
    "падения</w>": 6171,
    "пак": 6172,
    "пакет</w>": 6173,
    "паки": 6174,
    "пал": 6175,
    "пал</w>": 6176,
    "палат": 6177,
    "палаты</w>": 6178,
    "пале": 6179,
    "палестин": 6180,
    "пали</w>": 6181,
    "паль": 6182,
    "пам": 6183,
    "пами</w>": 6184,
    "памят": 6185,
    "памяти</w>": 6186,
    "память</w>": 6187,
    "пан": 6188,
    "пар": 6189,
    "пара": 6190,
    "паралл": 6191,
    "парамет": 6192,
    "параметров</w>": 6193,
    "параметры</w>": 6194,
    "парат": 6195,
    "пари": 6196,
    "парк</w>": 6197,
    "парка</w>": 6198,
    "парке</w>": 6199,
    "парков": 6200,
    "парла": 6201,
    "парламен": 6202,
    "парламент": 6203,
    "парламент</w>": 6204,
    "парламента</w>": 6205,
    "парламенте</w>": 6206,
    "парламентских</w>": 6207,
    "парт": 6208,
    "парта": 6209,
    "партак</w>": 6210,
    "парти": 6211,
    "партии</w>": 6212,
    "партий": 6213,
    "партий</w>": 6214,
    "партия</w>": 6215,
    "партне": 6216,
    "партнер": 6217,
    "пару</w>": 6218,
    "пас": 6219,
    "пассажи": 6220,
    "пассажир": 6221,
    "пассажиров</w>": 6222,
    "пат": 6223,
    "патри": 6224,
    "патриар": 6225,
    "патру": 6226,
    "пах</w>": 6227,
    "паци": 6228,
    "пе": 6229,
    "пе</w>": 6230,
    "пев": 6231,
    "певи": 6232,
    "пед": 6233,
    "педаго": 6234,
    "педи": 6235,
    "пей": 6236,
    "пен": 6237,
    "пенси": 6238,
    "пенсион": 6239,
    "пер": 6240,
    "пер</w>": 6241,
    "пера": 6242,
    "первая</w>": 6243,
    "первен": 6244,
    "перво": 6245,
    "первого</w>": 6246,
    "первое</w>": 6247,
    "первой</w>": 6248,
    "первом</w>": 6249,
    "первую</w>": 6250,
    "первы": 6251,
    "первые</w>": 6252,
    "первый</w>": 6253,
    "первым</w>": 6254,
    "первых</w>": 6255,
    "пере": 6256,
    "перевод": 6257,
    "перевоз": 6258,
    "перегово": 6259,
    "переговор": 6260,
    "переговоров</w>": 6261,
    "переговоры</w>": 6262,
    "перед": 6263,
    "перед</w>": 6264,
    "переда": 6265,
    "передав": 6266,
    "передает</w>": 6267,
    "передать</w>": 6268,
    "передачи</w>": 6269,
    "перекры": 6270,
    "перемен": 6271,
    "перемещ": 6272,
    "перен": 6273,
    "перенос": 6274,
    "пересе": 6275,
    "переход": 6276,
    "переход</w>": 6277,
    "перечисл": 6278,
    "пери": 6279,
    "период": 6280,
    "период</w>": 6281,
    "периода</w>": 6282,
    "перм": 6283,
    "персо": 6284,
    "персон": 6285,
    "персона": 6286,
    "перспек": 6287,
    "перспектив": 6288,
    "перспективы</w>": 6289,
    "перь</w>": 6290,
    "пес": 6291,
    "песни</w>": 6292,
    "пет": 6293,
    "петербур": 6294,
    "петербург": 6295,
    "петербург</w>": 6296,
    "петербурга</w>": 6297,
    "петербурге</w>": 6298,
    "петр</w>": 6299,
    "петро": 6300,
    "петров": 6301,
    "печ": 6302,
    "печат": 6303,
    "пеше": 6304,
    "пи": 6305,
    "пик": 6306,
    "пил": 6307,
    "пилот": 6308,
    "пин": 6309,
    "пира": 6310,
    "пиров": 6311,
    "пис": 6312,
    "писать</w>": 6313,
    "писи</w>": 6314,
    "пись": 6315,
    "письма</w>": 6316,
    "письмо</w>": 6317,
    "пит": 6318,
    "питания</w>": 6319,
    "пиш": 6320,
    "пишет</w>": 6321,
    "пл": 6322,
    "пл</w>": 6323,
    "пла": 6324,
    "плав": 6325,
    "план": 6326,
    "план</w>": 6327,
    "плана</w>": 6328,
    "планах</w>": 6329,
    "плане</w>": 6330,
    "планеты</w>": 6331,
    "плани": 6332,
    "планиров": 6333,
    "планирует</w>": 6334,
    "планируется</w>": 6335,
    "планируют</w>": 6336,
    "планы</w>": 6337,
    "пласти": 6338,
    "плат": 6339,
    "плата</w>": 6340,
    "плате</w>": 6341,
    "платеж": 6342,
    "платить</w>": 6343,
    "плату</w>": 6344,
    "платформы</w>": 6345,
    "платы</w>": 6346,
    "пле": 6347,
    "плей</w>": 6348,
    "плен": 6349,
    "пления</w>": 6350,
    "пли": 6351,
    "пло": 6352,
    "плот": 6353,
    "плохо": 6354,
    "плохо</w>": 6355,
    "площ": 6356,
    "площа": 6357,
    "площад": 6358,
    "площади</w>": 6359,
    "площадке</w>": 6360,
    "площадки</w>": 6361,
    "площадь</w>": 6362,
    "площадью</w>": 6363,
    "плу": 6364,
    "плю": 6365,
    "плюс</w>": 6366,
    "пля": 6367,
    "по": 6368,
    "по</w>": 6369,
    "побе": 6370,
    "побед": 6371,
    "победу</w>": 6372,
    "победы</w>": 6373,
    "побереж": 6374,
    "пов": 6375,
    "пов</w>": 6376,
    "пова</w>": 6377,
    "пове": 6378,
    "повед": 6379,
    "поведение</w>": 6380,
    "повер": 6381,
    "поверх": 6382,
    "поверхности</w>": 6383,
    "повест": 6384,
    "повли": 6385,
    "пово": 6386,
    "повод": 6387,
    "поводу</w>": 6388,
    "поврежд": 6389,
    "повстан": 6390,
    "повтор": 6391,
    "повы": 6392,
    "повысить</w>": 6393,
    "повыш": 6394,
    "повышение</w>": 6395,
    "повышения</w>": 6396,
    "пога": 6397,
    "поги": 6398,
    "погиб": 6399,
    "погиб</w>": 6400,
    "погибли</w>": 6401,
    "погибших</w>": 6402,
    "погод": 6403,
    "погранич": 6404,
    "под": 6405,
    "под</w>": 6406,
    "пода": 6407,
    "подав": 6408,
    "подал</w>": 6409,
    "подвер": 6410,
    "подвод": 6411,
    "подготов": 6412,
    "подготовке</w>": 6413,
    "подготовки</w>": 6414,
    "подготовку</w>": 6415,
    "поддерж": 6416,
    "поддержи": 6417,
    "поддерживает</w>": 6418,
    "поддерживать</w>": 6419,
    "поддержка</w>": 6420,
    "поддержке</w>": 6421,
    "поддержки</w>": 6422,
    "поддержку</w>": 6423,
    "подел": 6424,
    "подзем": 6425,
    "подклю": 6426,
    "подмосков": 6427,
    "подмосковье</w>": 6428,
    "подмосковья</w>": 6429,
    "подн": 6430,
    "подня": 6431,
    "подо": 6432,
    "подоб": 6433,
    "подобные</w>": 6434,
    "подобных</w>": 6435,
    "подоз": 6436,
    "подозре": 6437,
    "подозрева": 6438,
    "подозреваемого</w>": 6439,
    "подозреваемых</w>": 6440,
    "подозрению</w>": 6441,
    "подпи": 6442,
    "подпис": 6443,
    "подписал</w>": 6444,
    "подписали</w>": 6445,
    "подраздел": 6446,
    "подразделения</w>": 6447,
    "подроб": 6448,
    "подробнее</w>": 6449,
    "подробности</w>": 6450,
    "подрост": 6451,
    "подряд</w>": 6452,
    "подсуд": 6453,
    "подт": 6454,
    "подтверд": 6455,
    "подтвердил</w>": 6456,
    "подтвердили</w>": 6457,
    "подтвержд": 6458,
    "подход": 6459,
    "подход</w>": 6460,
    "подчер": 6461,
    "подчерки": 6462,
    "подчеркну": 6463,
    "подчеркнул</w>": 6464,
    "подчин": 6465,
    "подъ": 6466,
    "поезд": 6467,
    "поезда</w>": 6468,
    "пож": 6469,
    "пожал": 6470,
    "пожар": 6471,
    "пожар</w>": 6472,
    "пожара</w>": 6473,
    "пожаров</w>": 6474,
    "поз": 6475,
    "позво": 6476,
    "позвол": 6477,
    "позволит</w>": 6478,
    "позволя": 6479,
    "позволяет</w>": 6480,
    "позволяют</w>": 6481,
    "позд": 6482,
    "позднее</w>": 6483,
    "поздрав": 6484,
    "позже</w>": 6485,
    "пози": 6486,
    "позитив": 6487,
    "позиции</w>": 6488,
    "позицию</w>": 6489,
    "позиция</w>": 6490,
    "позна": 6491,
    "поиск": 6492,
    "поиск</w>": 6493,
    "поиска</w>": 6494,
    "пой": 6495,
    "пой</w>": 6496,
    "пок</w>": 6497,
    "пока</w>": 6498,
    "покаж": 6499,
    "показ": 6500,
    "показал</w>": 6501,
    "показали</w>": 6502,
    "показания</w>": 6503,
    "показатели</w>": 6504,
    "показатель</w>": 6505,
    "показать</w>": 6506,
    "показывает</w>": 6507,
    "покин": 6508,
    "покинуть</w>": 6509,
    "поклон": 6510,
    "покол": 6511,
    "поколения</w>": 6512,
    "покры": 6513,
    "поку": 6514,
    "покуп": 6515,
    "пол": 6516,
    "пола": 6517,
    "полаг": 6518,
    "полага": 6519,
    "полагает</w>": 6520,
    "полагается</w>": 6521,
    "полагают</w>": 6522,
    "поле</w>": 6523,
    "полез": 6524,
    "полета</w>": 6525,
    "поли": 6526,
    "полит": 6527,
    "полити": 6528,
    "политика</w>": 6529,
    "политике</w>": 6530,
    "политики</w>": 6531,
    "политику</w>": 6532,
    "политические</w>": 6533,
    "политический</w>": 6534,
    "политических</w>": 6535,
    "политического</w>": 6536,
    "политической</w>": 6537,
    "полицей": 6538,
    "полицейские</w>": 6539,
    "полицейских</w>": 6540,
    "полиции</w>": 6541,
    "полицию</w>": 6542,
    "полиция</w>": 6543,
    "полков": 6544,
    "полн": 6545,
    "полне</w>": 6546,
    "полно": 6547,
    "полной</w>": 6548,
    "полном</w>": 6549,
    "полномо": 6550,
    "полномочи": 6551,
    "полномочий</w>": 6552,
    "полномочия</w>": 6553,
    "полностью</w>": 6554,
    "полноцен": 6555,
    "полный</w>": 6556,
    "полня": 6557,
    "поло": 6558,
    "полов": 6559,
    "половине</w>": 6560,
    "половины</w>": 6561,
    "полож": 6562,
    "положен": 6563,
    "положение</w>": 6564,
    "положения</w>": 6565,
    "полос": 6566,
    "полтора</w>": 6567,
    "полу": 6568,
    "полугод": 6569,
    "получ": 6570,
    "получа": 6571,
    "получает</w>": 6572,
    "получается</w>": 6573,
    "получат</w>": 6574,
    "получать</w>": 6575,
    "получают</w>": 6576,
    "получение</w>": 6577,
    "получения</w>": 6578,
    "полученных</w>": 6579,
    "получи": 6580,
    "получил</w>": 6581,
    "получила</w>": 6582,
    "получили</w>": 6583,
    "получит</w>": 6584,
    "получить</w>": 6585,
    "поль": 6586,
    "поль</w>": 6587,
    "польз": 6588,
    "пользов": 6589,
    "пользователей</w>": 6590,
    "пользователи</w>": 6591,
    "пользователя</w>": 6592,
    "пользоваться</w>": 6593,
    "пользу": 6594,
    "пользу</w>": 6595,
    "поля</w>": 6596,
    "пом": 6597,
    "пом</w>": 6598,
    "помещ": 6599,
    "помещения</w>": 6600,
    "помимо</w>": 6601,
    "помн": 6602,
    "помним</w>": 6603,
    "помо": 6604,
    "помогает</w>": 6605,
    "поможет</w>": 6606,
    "помочь</w>": 6607,
    "помощ": 6608,
    "помощи</w>": 6609,
    "помощник</w>": 6610,
    "помощь</w>": 6611,
    "помощью</w>": 6612,
    "пон": 6613,
    "пона": 6614,
    "поне": 6615,
    "понедель": 6616,
    "понедельник</w>": 6617,
    "пони": 6618,
    "понии</w>": 6619,
    "поним": 6620,
    "понима": 6621,
    "понимать</w>": 6622,
    "поня": 6623,
    "понят": 6624,
    "понятно</w>": 6625,
    "понять</w>": 6626,
    "пообещ": 6627,
    "пообещал</w>": 6628,
    "поп": 6629,
    "попа": 6630,
    "попад": 6631,
    "попал</w>": 6632,
    "попали</w>": 6633,
    "попасть</w>": 6634,
    "поправ": 6635,
    "поправки</w>": 6636,
    "попрос": 6637,
    "попросил</w>": 6638,
    "попу": 6639,
    "популяр": 6640,
    "попыт": 6641,
    "попытки</w>": 6642,
    "попытку</w>": 6643,
    "пор": 6644,
    "пор</w>": 6645,
    "пора": 6646,
    "пораж": 6647,
    "поражение</w>": 6648,
    "поро": 6649,
    "порт": 6650,
    "порт</w>": 6651,
    "порта</w>": 6652,
    "портал</w>": 6653,
    "порту": 6654,
    "пору": 6655,
    "поруч": 6656,
    "поручил</w>": 6657,
    "поря": 6658,
    "поряд": 6659,
    "порядка</w>": 6660,
    "порядке</w>": 6661,
    "порядок</w>": 6662,
    "посад": 6663,
    "посв": 6664,
    "посвящ": 6665,
    "посвящен": 6666,
    "посвященная</w>": 6667,
    "посе": 6668,
    "посел": 6669,
    "поселка</w>": 6670,
    "поселке</w>": 6671,
    "посет": 6672,
    "посещ": 6673,
    "поскольку</w>": 6674,
    "посл": 6675,
    "после</w>": 6676,
    "послед": 6677,
    "последнего</w>": 6678,
    "последнее</w>": 6679,
    "последней</w>": 6680,
    "последние</w>": 6681,
    "последний</w>": 6682,
    "последним</w>": 6683,
    "последних</w>": 6684,
    "последняя</w>": 6685,
    "последов": 6686,
    "последователь": 6687,
    "последствии</w>": 6688,
    "последствий</w>": 6689,
    "последствия</w>": 6690,
    "последу": 6691,
    "посмотреть</w>": 6692,
    "посо": 6693,
    "пособ": 6694,
    "посол</w>": 6695,
    "посоль": 6696,
    "посольства</w>": 6697,
    "посред": 6698,
    "пост": 6699,
    "пост</w>": 6700,
    "поста": 6701,
    "поста</w>": 6702,
    "постав": 6703,
    "поставить</w>": 6704,
    "поставки</w>": 6705,
    "поставок</w>": 6706,
    "постанов": 6707,
    "постановление</w>": 6708,
    "постепен": 6709,
    "постепенно</w>": 6710,
    "постоян": 6711,
    "постоянно</w>": 6712,
    "постра": 6713,
    "пострадав": 6714,
    "пострадавших</w>": 6715,
    "пострадал</w>": 6716,
    "пострадали</w>": 6717,
    "постро": 6718,
    "построить</w>": 6719,
    "посту</w>": 6720,
    "поступ": 6721,
    "поступа": 6722,
    "поступи": 6723,
    "поступило</w>": 6724,
    "пот": 6725,
    "поте": 6726,
    "потен": 6727,
    "потенци": 6728,
    "потенциаль": 6729,
    "потер": 6730,
    "потери</w>": 6731,
    "потерпе": 6732,
    "пото": 6733,
    "поток</w>": 6734,
    "потом</w>": 6735,
    "потому</w>": 6736,
    "потреб": 6737,
    "потребителей</w>": 6738,
    "потребов": 6739,
    "потребовал</w>": 6740,
    "похит": 6741,
    "похищ": 6742,
    "похо": 6743,
    "поч": 6744,
    "почему</w>": 6745,
    "почет": 6746,
    "почт": 6747,
    "почти</w>": 6748,
    "пош": 6749,
    "поэ": 6750,
    "поэтому</w>": 6751,
    "появ": 6752,
    "появилась</w>": 6753,
    "появились</w>": 6754,
    "появился</w>": 6755,
    "появится</w>": 6756,
    "поясн": 6757,
    "пояснил</w>": 6758,
    "пп</w>": 6759,
    "пр</w>": 6760,
    "пра": 6761,
    "прав": 6762,
    "прав</w>": 6763,
    "права</w>": 6764,
    "правам</w>": 6765,
    "правда</w>": 6766,
    "прави": 6767,
    "правил": 6768,
    "правил</w>": 6769,
    "правила</w>": 6770,
    "правило</w>": 6771,
    "правиль": 6772,
    "правильно</w>": 6773,
    "правитель": 6774,
    "правительства</w>": 6775,
    "правительстве</w>": 6776,
    "правительственные</w>": 6777,
    "правительство</w>": 6778,
    "правительством</w>": 6779,
    "правительству</w>": 6780,
    "правления</w>": 6781,
    "право": 6782,
    "право</w>": 6783,
    "правозащит": 6784,
    "правоохран": 6785,
    "правоохранительные</w>": 6786,
    "правоохранительных</w>": 6787,
    "православ": 6788,
    "празд": 6789,
    "праздник</w>": 6790,
    "празднич": 6791,
    "празднов": 6792,
    "прай": 6793,
    "прайм</w>": 6794,
    "прак": 6795,
    "практи": 6796,
    "практике</w>": 6797,
    "практически</w>": 6798,
    "праши": 6799,
    "пре": 6800,
    "пребыв": 6801,
    "преврат": 6802,
    "превращ": 6803,
    "превы": 6804,
    "превыш": 6805,
    "превышает</w>": 6806,
    "пред": 6807,
    "пред</w>": 6808,
    "предваритель": 6809,
    "предварительным</w>": 6810,
    "предвыбор": 6811,
    "предел": 6812,
    "пределами</w>": 6813,
    "предла": 6814,
    "предлаг": 6815,
    "предлага": 6816,
    "предлагает</w>": 6817,
    "предлагается</w>": 6818,
    "предлагают</w>": 6819,
    "предлож": 6820,
    "предложен": 6821,
    "предложение</w>": 6822,
    "предложения</w>": 6823,
    "предложил</w>": 6824,
    "предложили</w>": 6825,
    "предмет": 6826,
    "предназнач": 6827,
    "предостав": 6828,
    "предоставить</w>": 6829,
    "предот": 6830,
    "предпо": 6831,
    "предполаг": 6832,
    "предполага": 6833,
    "предполагает</w>": 6834,
    "предполагается</w>": 6835,
    "предполож": 6836,
    "предположительно</w>": 6837,
    "предпринимат": 6838,
    "предприниматель": 6839,
    "предприяти": 6840,
    "предприятие</w>": 6841,
    "предприятий</w>": 6842,
    "предприятия</w>": 6843,
    "председ": 6844,
    "председателем</w>": 6845,
    "председатель</w>": 6846,
    "председателя</w>": 6847,
    "предсказ": 6848,
    "представ": 6849,
    "представителей</w>": 6850,
    "представители</w>": 6851,
    "представитель": 6852,
    "представитель</w>": 6853,
    "представителя</w>": 6854,
    "представителями</w>": 6855,
    "представить</w>": 6856,
    "представление</w>": 6857,
    "представлены</w>": 6858,
    "представля": 6859,
    "представляет</w>": 6860,
    "представляют</w>": 6861,
    "предстоит</w>": 6862,
    "предстоя": 6863,
    "преду": 6864,
    "предупред": 6865,
    "предупрежд": 6866,
    "предусматри": 6867,
    "предусматривает</w>": 6868,
    "предусмотрен": 6869,
    "предше": 6870,
    "предъ": 6871,
    "предъяв": 6872,
    "предыду": 6873,
    "преж": 6874,
    "прежд": 6875,
    "прежде</w>": 6876,
    "прежнему</w>": 6877,
    "презен": 6878,
    "прези": 6879,
    "президент": 6880,
    "президент</w>": 6881,
    "президента</w>": 6882,
    "президентом</w>": 6883,
    "президентских</w>": 6884,
    "президенту</w>": 6885,
    "президенты</w>": 6886,
    "преимуще": 6887,
    "прекрас": 6888,
    "прекрат": 6889,
    "прекратить</w>": 6890,
    "прекращ": 6891,
    "преми": 6892,
    "премии</w>": 6893,
    "премию</w>": 6894,
    "премь": 6895,
    "премьер</w>": 6896,
    "премьера</w>": 6897,
    "преод": 6898,
    "преодо": 6899,
    "преподав": 6900,
    "препят": 6901,
    "пресе": 6902,
    "преследов": 6903,
    "пресс</w>": 6904,
    "преступ": 6905,
    "преступл": 6906,
    "преступлений</w>": 6907,
    "преступления</w>": 6908,
    "претен": 6909,
    "при": 6910,
    "при</w>": 6911,
    "приб": 6912,
    "приблиз": 6913,
    "прибы": 6914,
    "прибыл</w>": 6915,
    "прибыли</w>": 6916,
    "прибыль</w>": 6917,
    "прив": 6918,
    "приват": 6919,
    "привати": 6920,
    "привед": 6921,
    "привел": 6922,
    "привел</w>": 6923,
    "привело</w>": 6924,
    "привести</w>": 6925,
    "привет": 6926,
    "привле": 6927,
    "привлек": 6928,
    "привлечь</w>": 6929,
    "привод": 6930,
    "приводит</w>": 6931,
    "привы": 6932,
    "пригла": 6933,
    "приговор": 6934,
    "приговор</w>": 6935,
    "приговорил</w>": 6936,
    "прид": 6937,
    "придется</w>": 6938,
    "прием": 6939,
    "приз": 6940,
    "призвал</w>": 6941,
    "призн": 6942,
    "призна": 6943,
    "признал</w>": 6944,
    "признали</w>": 6945,
    "признался</w>": 6946,
    "признан</w>": 6947,
    "признать</w>": 6948,
    "призы": 6949,
    "приказ": 6950,
    "прилож": 6951,
    "приложение</w>": 6952,
    "приложения</w>": 6953,
    "примен": 6954,
    "применение</w>": 6955,
    "применения</w>": 6956,
    "пример": 6957,
    "пример</w>": 6958,
    "примерно</w>": 6959,
    "примеру</w>": 6960,
    "примет</w>": 6961,
    "примор": 6962,
    "примут</w>": 6963,
    "прин": 6964,
    "принадле": 6965,
    "принадлеж": 6966,
    "принадлежа": 6967,
    "принадлежит</w>": 6968,
    "прине": 6969,
    "прини": 6970,
    "приним": 6971,
    "принима": 6972,
    "принимает</w>": 6973,
    "принимат": 6974,
    "принимать</w>": 6975,
    "принимают</w>": 6976,
    "принци": 6977,
    "принципи": 6978,
    "приня": 6979,
    "принял</w>": 6980,
    "приняла</w>": 6981,
    "приняли</w>": 6982,
    "принят": 6983,
    "принят</w>": 6984,
    "принятия</w>": 6985,
    "принято</w>": 6986,
    "приняты</w>": 6987,
    "принять</w>": 6988,
    "приобре": 6989,
    "приобрет": 6990,
    "приорит": 6991,
    "приостанов": 6992,
    "природ": 6993,
    "природы</w>": 6994,
    "присво": 6995,
    "присоедин": 6996,
    "приступ": 6997,
    "присут": 6998,
    "прися": 6999,
    "приход": 7000,
    "приходится</w>": 7001,
    "причаст": 7002,
    "причастности</w>": 7003,
    "причем</w>": 7004,
    "причи": 7005,
    "причин": 7006,
    "причин</w>": 7007,
    "причина</w>": 7008,
    "причиной</w>": 7009,
    "причины</w>": 7010,
    "приш": 7011,
    "пришел</w>": 7012,
    "пришли</w>": 7013,
    "пришлось</w>": 7014,
    "прият": 7015,
    "прияти": 7016,
    "про": 7017,
    "про</w>": 7018,
    "проб": 7019,
    "пробле": 7020,
    "проблем</w>": 7021,
    "проблема</w>": 7022,
    "проблему</w>": 7023,
    "проблемы</w>": 7024,
    "пров": 7025,
    "провед": 7026,
    "проведение</w>": 7027,
    "проведении</w>": 7028,
    "проведения</w>": 7029,
    "проведет</w>": 7030,
    "провел</w>": 7031,
    "провели</w>": 7032,
    "провер": 7033,
    "проверить</w>": 7034,
    "проверка</w>": 7035,
    "проверки</w>": 7036,
    "проверку</w>": 7037,
    "провести</w>": 7038,
    "провин": 7039,
    "провинции</w>": 7040,
    "прово": 7041,
    "провод": 7042,
    "провода</w>": 7043,
    "проводит</w>": 7044,
    "проводится</w>": 7045,
    "проводить</w>": 7046,
    "проводят</w>": 7047,
    "проводятся</w>": 7048,
    "провоз": 7049,
    "провозгла": 7050,
    "провока": 7051,
    "провоци": 7052,
    "прог": 7053,
    "прогно": 7054,
    "прогноз</w>": 7055,
    "прогнози": 7056,
    "проголос": 7057,
    "програм": 7058,
    "программ</w>": 7059,
    "программа</w>": 7060,
    "программе</w>": 7061,
    "программи": 7062,
    "программиров": 7063,
    "программу</w>": 7064,
    "программы</w>": 7065,
    "прод": 7066,
    "прода": 7067,
    "продав": 7068,
    "продаж</w>": 7069,
    "продаже</w>": 7070,
    "продажи</w>": 7071,
    "продажу</w>": 7072,
    "продать</w>": 7073,
    "продемонстри": 7074,
    "продл": 7075,
    "продоволь": 7076,
    "продол": 7077,
    "продолж": 7078,
    "продолжает</w>": 7079,
    "продолжается</w>": 7080,
    "продолжать</w>": 7081,
    "продолжают</w>": 7082,
    "проду": 7083,
    "продук": 7084,
    "продуктов</w>": 7085,
    "продукты</w>": 7086,
    "продукции</w>": 7087,
    "продю": 7088,
    "проек": 7089,
    "проект": 7090,
    "проект</w>": 7091,
    "проекта</w>": 7092,
    "проекте</w>": 7093,
    "проектов</w>": 7094,
    "проектом</w>": 7095,
    "проекту</w>": 7096,
    "проекты</w>": 7097,
    "прожи": 7098,
    "проз": 7099,
    "прозра": 7100,
    "проигра": 7101,
    "произ": 7102,
    "произвед": 7103,
    "производ": 7104,
    "производителей</w>": 7105,
    "производства</w>": 7106,
    "производство</w>": 7107,
    "произо": 7108,
    "произош": 7109,
    "произошед": 7110,
    "произошедшего</w>": 7111,
    "произошел</w>": 7112,
    "произошла</w>": 7113,
    "произошли</w>": 7114,
    "произошло</w>": 7115,
    "проис": 7116,
    "происход": 7117,
    "происходит</w>": 7118,
    "происше": 7119,
    "происшествия</w>": 7120,
    "прой": 7121,
    "пройдет</w>": 7122,
    "пройдут</w>": 7123,
    "пройти</w>": 7124,
    "прокат": 7125,
    "прокоммен": 7126,
    "проку": 7127,
    "прокуратур": 7128,
    "прокуратура</w>": 7129,
    "прокуратуры</w>": 7130,
    "прокуро": 7131,
    "прокурор</w>": 7132,
    "прокурора</w>": 7133,
    "пром": 7134,
    "промышлен": 7135,
    "промышленности</w>": 7136,
    "пропа": 7137,
    "пропав": 7138,
    "пропуск": 7139,
    "прос": 7140,
    "просил</w>": 7141,
    "проспе": 7142,
    "прост": 7143,
    "просто</w>": 7144,
    "простой</w>": 7145,
    "простран": 7146,
    "пространства</w>": 7147,
    "пространстве</w>": 7148,
    "пространство</w>": 7149,
    "прось": 7150,
    "просьбой</w>": 7151,
    "проте": 7152,
    "протеста</w>": 7153,
    "протесту": 7154,
    "проти": 7155,
    "против": 7156,
    "против</w>": 7157,
    "противо": 7158,
    "противод": 7159,
    "противодей": 7160,
    "противоре": 7161,
    "противостоя": 7162,
    "прото": 7163,
    "протокол": 7164,
    "протя": 7165,
    "протяжении</w>": 7166,
    "проф": 7167,
    "профе": 7168,
    "профессион": 7169,
    "профессо": 7170,
    "профессор</w>": 7171,
    "профил": 7172,
    "проход": 7173,
    "проходит</w>": 7174,
    "проходить</w>": 7175,
    "проходят</w>": 7176,
    "проце": 7177,
    "процед": 7178,
    "процент": 7179,
    "процента</w>": 7180,
    "процентов</w>": 7181,
    "процес": 7182,
    "процесс": 7183,
    "процесс</w>": 7184,
    "процесса</w>": 7185,
    "процессе</w>": 7186,
    "процессо": 7187,
    "прочем</w>": 7188,
    "прош": 7189,
    "прошед": 7190,
    "прошел</w>": 7191,
    "прошл": 7192,
    "прошла</w>": 7193,
    "прошли</w>": 7194,
    "прошло": 7195,
    "прошло</w>": 7196,
    "прошлого</w>": 7197,
    "прошлой</w>": 7198,
    "прошлом</w>": 7199,
    "прощ": 7200,
    "проще</w>": 7201,
    "прояв": 7202,
    "пру": 7203,
    "пры": 7204,
    "пря": 7205,
    "прямо</w>": 7206,
    "пси": 7207,
    "психи": 7208,
    "психо": 7209,
    "психологи": 7210,
    "пти": 7211,
    "пу": 7212,
    "пу</w>": 7213,
    "публи": 7214,
    "публика": 7215,
    "публикации</w>": 7216,
    "публиков": 7217,
    "пуль": 7218,
    "пун": 7219,
    "пунк": 7220,
    "пункт</w>": 7221,
    "пункта</w>": 7222,
    "пунктов</w>": 7223,
    "пуск": 7224,
    "пуск</w>": 7225,
    "пуска</w>": 7226,
    "пуст": 7227,
    "пусти": 7228,
    "пустил</w>": 7229,
    "пустила</w>": 7230,
    "пустили</w>": 7231,
    "пустить</w>": 7232,
    "пусть</w>": 7233,
    "пустя</w>": 7234,
    "пут": 7235,
    "путе": 7236,
    "путем</w>": 7237,
    "путеше": 7238,
    "пути</w>": 7239,
    "путин</w>": 7240,
    "путина</w>": 7241,
    "путь</w>": 7242,
    "пуш": 7243,
    "пущ": 7244,
    "пы": 7245,
    "пы</w>": 7246,
    "пыт": 7247,
    "пыта": 7248,
    "пытается</w>": 7249,
    "пытались</w>": 7250,
    "пытался</w>": 7251,
    "пытаются</w>": 7252,
    "пь": 7253,
    "пя": 7254,
    "пят": 7255,
    "пятер": 7256,
    "пяти": 7257,
    "пяти</w>": 7258,
    "пятницу</w>": 7259,
    "пять</w>": 7260,
    "р": 7261,
    "р</w>": 7262,
    "ра": 7263,
    "ра</w>": 7264,
    "раб": 7265,
    "рабат": 7266,
    "рабо": 7267,
    "работ": 7268,
    "работ</w>": 7269,
    "работа": 7270,
    "работа</w>": 7271,
    "работает</w>": 7272,
    "работал</w>": 7273,
    "работали</w>": 7274,
    "работать</w>": 7275,
    "работают</w>": 7276,
    "работе</w>": 7277,
    "работки</w>": 7278,
    "работников</w>": 7279,
    "работо": 7280,
    "работу</w>": 7281,
    "работы</w>": 7282,
    "рабочей</w>": 7283,
    "рабочих</w>": 7284,
    "рав": 7285,
    "равно": 7286,
    "равно</w>": 7287,
    "рад": 7288,
    "ради": 7289,
    "ради</w>": 7290,
    "радик": 7291,
    "радио": 7292,
    "радио</w>": 7293,
    "радо": 7294,
    "раж": 7295,
    "раз": 7296,
    "раз</w>": 7297,
    "раза</w>": 7298,
    "разб": 7299,
    "разби": 7300,
    "разв": 7301,
    "развед": 7302,
    "разведки</w>": 7303,
    "разви": 7304,
    "развивать</w>": 7305,
    "развити": 7306,
    "развитие</w>": 7307,
    "развитии</w>": 7308,
    "развитию</w>": 7309,
    "развития</w>": 7310,
    "разговор": 7311,
    "разд": 7312,
    "раздел": 7313,
    "разли": 7314,
    "различ": 7315,
    "различные</w>": 7316,
    "различных</w>": 7317,
    "разме": 7318,
    "размер</w>": 7319,
    "размере</w>": 7320,
    "размест": 7321,
    "размещ": 7322,
    "размещения</w>": 7323,
    "разно": 7324,
    "разнообраз": 7325,
    "разные</w>": 7326,
    "разных</w>": 7327,
    "разрабат": 7328,
    "разработ": 7329,
    "разработке</w>": 7330,
    "разработки</w>": 7331,
    "разработку</w>": 7332,
    "разработчиков</w>": 7333,
    "разреш": 7334,
    "разрешение</w>": 7335,
    "разрешения</w>": 7336,
    "разру": 7337,
    "разруш": 7338,
    "разу</w>": 7339,
    "разуме": 7340,
    "разъ": 7341,
    "разы": 7342,
    "рай": 7343,
    "район": 7344,
    "район</w>": 7345,
    "района</w>": 7346,
    "районах</w>": 7347,
    "районе</w>": 7348,
    "районов</w>": 7349,
    "рак": 7350,
    "ракет": 7351,
    "ракет</w>": 7352,
    "ракеты</w>": 7353,
    "ракт": 7354,
    "раль": 7355,
    "рам": 7356,
    "рам</w>": 7357,
    "рами</w>": 7358,
    "рамках</w>": 7359,
    "ран": 7360,
    "ран</w>": 7361,
    "ранее</w>": 7362,
    "ранен": 7363,
    "ранения</w>": 7364,
    "ранены</w>": 7365,
    "рано</w>": 7366,
    "ранов</w>": 7367,
    "раньше</w>": 7368,
    "рап": 7369,
    "рапси</w>": 7370,
    "рас": 7371,
    "раскры": 7372,
    "располож": 7373,
    "расположен": 7374,
    "распоря": 7375,
    "распредел": 7376,
    "распростран": 7377,
    "распространения</w>": 7378,
    "рассказ": 7379,
    "рассказал</w>": 7380,
    "рассказала</w>": 7381,
    "рассказали</w>": 7382,
    "расследов": 7383,
    "расследование</w>": 7384,
    "расследования</w>": 7385,
    "рассматри": 7386,
    "рассматривать</w>": 7387,
    "рассмотр": 7388,
    "рассмотрение</w>": 7389,
    "рассмотрения</w>": 7390,
    "рассмотреть</w>": 7391,
    "рассмотри": 7392,
    "рассмотрит</w>": 7393,
    "расстоя": 7394,
    "рассчит": 7395,
    "раст": 7396,
    "растет</w>": 7397,
    "расту": 7398,
    "расход": 7399,
    "расходов</w>": 7400,
    "расходы</w>": 7401,
    "расчет": 7402,
    "расши": 7403,
    "расшир": 7404,
    "рат": 7405,
    "рат</w>": 7406,
    "ратель": 7407,
    "рати": 7408,
    "ратить</w>": 7409,
    "ратур": 7410,
    "раты</w>": 7411,
    "раться</w>": 7412,
    "раун": 7413,
    "рах</w>": 7414,
    "рации</w>": 7415,
    "рая</w>": 7416,
    "рг": 7417,
    "ргизи": 7418,
    "ргизии</w>": 7419,
    "рд</w>": 7420,
    "ре": 7421,
    "ре</w>": 7422,
    "реа": 7423,
    "реабил": 7424,
    "реаги": 7425,
    "реак": 7426,
    "реакция</w>": 7427,
    "реали": 7428,
    "реализ": 7429,
    "реализации</w>": 7430,
    "реализацию</w>": 7431,
    "реализов": 7432,
    "реализовать</w>": 7433,
    "реализу": 7434,
    "реаль": 7435,
    "реб": 7436,
    "ребен": 7437,
    "ребенка</w>": 7438,
    "ребенок</w>": 7439,
    "рев": 7440,
    "рев</w>": 7441,
    "рева</w>": 7442,
    "револю": 7443,
    "революции</w>": 7444,
    "реги": 7445,
    "регион": 7446,
    "регион</w>": 7447,
    "региона</w>": 7448,
    "регионального</w>": 7449,
    "региональных</w>": 7450,
    "регионах</w>": 7451,
    "регионе</w>": 7452,
    "регионов</w>": 7453,
    "регистра": 7454,
    "регистрации</w>": 7455,
    "регистри": 7456,
    "регла": 7457,
    "регу": 7458,
    "регули": 7459,
    "регуля": 7460,
    "регуляр": 7461,
    "регулярно</w>": 7462,
    "ред": 7463,
    "ред</w>": 7464,
    "редак": 7465,
    "редактор</w>": 7466,
    "редакции</w>": 7467,
    "редко</w>": 7468,
    "редо": 7469,
    "рее": 7470,
    "рее</w>": 7471,
    "реж": 7472,
    "режд": 7473,
    "реждения</w>": 7474,
    "режи": 7475,
    "режим</w>": 7476,
    "режима</w>": 7477,
    "режиме</w>": 7478,
    "режис": 7479,
    "режиссер": 7480,
    "режиссер</w>": 7481,
    "режиссера</w>": 7482,
    "рез": 7483,
    "рез</w>": 7484,
    "резер": 7485,
    "резерв": 7486,
    "рези": 7487,
    "резко</w>": 7488,
    "резолю": 7489,
    "резон": 7490,
    "резуль": 7491,
    "результат": 7492,
    "результат</w>": 7493,
    "результатам</w>": 7494,
    "результате</w>": 7495,
    "результатов</w>": 7496,
    "результатом</w>": 7497,
    "результаты</w>": 7498,
    "реи</w>": 7499,
    "рей": 7500,
    "рей</w>": 7501,
    "рейс</w>": 7502,
    "рейсов</w>": 7503,
    "рейтер</w>": 7504,
    "рейтин": 7505,
    "рейтинг</w>": 7506,
    "рейтинга</w>": 7507,
    "рейтинге</w>": 7508,
    "рек": 7509,
    "реки</w>": 7510,
    "рекла": 7511,
    "реклам": 7512,
    "рекламы</w>": 7513,
    "рекомен": 7514,
    "рекомендов": 7515,
    "рекоменду": 7516,
    "реконструк": 7517,
    "реконструкции</w>": 7518,
    "рекор": 7519,
    "рекорд": 7520,
    "рекорд</w>": 7521,
    "рели": 7522,
    "религи": 7523,
    "религиоз": 7524,
    "релизе</w>": 7525,
    "рель": 7526,
    "рем": 7527,
    "рем</w>": 7528,
    "ремен": 7529,
    "ременно</w>": 7530,
    "ремо": 7531,
    "ремон": 7532,
    "ремонт</w>": 7533,
    "ремя</w>": 7534,
    "рен": 7535,
    "рение</w>": 7536,
    "рению</w>": 7537,
    "рения</w>": 7538,
    "репор": 7539,
    "репорта": 7540,
    "рес": 7541,
    "респон": 7542,
    "республи": 7543,
    "республикан": 7544,
    "республике</w>": 7545,
    "республики</w>": 7546,
    "ресс</w>": 7547,
    "рестав": 7548,
    "ресто": 7549,
    "рестора": 7550,
    "ресур": 7551,
    "ресурсов</w>": 7552,
    "ресурсы</w>": 7553,
    "рет": 7554,
    "референ": 7555,
    "реформы</w>": 7556,
    "рец": 7557,
    "рец</w>": 7558,
    "речь</w>": 7559,
    "реш": 7560,
    "решать</w>": 7561,
    "решение</w>": 7562,
    "решением</w>": 7563,
    "решении</w>": 7564,
    "решений</w>": 7565,
    "решению</w>": 7566,
    "решения</w>": 7567,
    "решил</w>": 7568,
    "решили</w>": 7569,
    "решить</w>": 7570,
    "рея</w>": 7571,
    "ри": 7572,
    "ри</w>": 7573,
    "риа</w>": 7574,
    "рии</w>": 7575,
    "рий</w>": 7576,
    "рил</w>": 7577,
    "рили</w>": 7578,
    "рим": 7579,
    "рин": 7580,
    "рин</w>": 7581,
    "рина</w>": 7582,
    "рис</w>": 7583,
    "риса</w>": 7584,
    "риск": 7585,
    "рисов": 7586,
    "рит": 7587,
    "рител": 7588,
    "ритель": 7589,
    "рито": 7590,
    "рить</w>": 7591,
    "риться</w>": 7592,
    "риц": 7593,
    "рию</w>": 7594,
    "рия</w>": 7595,
    "рной</w>": 7596,
    "рных</w>": 7597,
    "ро": 7598,
    "ро</w>": 7599,
    "роб": 7600,
    "ров": 7601,
    "ров</w>": 7602,
    "рова</w>": 7603,
    "ровал</w>": 7604,
    "ровала</w>": 7605,
    "ровали</w>": 7606,
    "рован": 7607,
    "рован</w>": 7608,
    "рована</w>": 7609,
    "рование</w>": 7610,
    "ровании</w>": 7611,
    "рованию</w>": 7612,
    "рования</w>": 7613,
    "рованная</w>": 7614,
    "рованного</w>": 7615,
    "рованной</w>": 7616,
    "рованные</w>": 7617,
    "рованный</w>": 7618,
    "рованных</w>": 7619,
    "ровано</w>": 7620,
    "рованы</w>": 7621,
    "ровать</w>": 7622,
    "роваться</w>": 7623,
    "ровки</w>": 7624,
    "ровой</w>": 7625,
    "род": 7626,
    "род</w>": 7627,
    "рода</w>": 7628,
    "роде</w>": 7629,
    "родился</w>": 7630,
    "родителей</w>": 7631,
    "родители</w>": 7632,
    "родствен": 7633,
    "рожд": 7634,
    "рождения</w>": 7635,
    "роз": 7636,
    "розы": 7637,
    "рои": 7638,
    "рой</w>": 7639,
    "рок</w>": 7640,
    "роли": 7641,
    "роли</w>": 7642,
    "роль</w>": 7643,
    "ром": 7644,
    "ром</w>": 7645,
    "рома</w>": 7646,
    "роман": 7647,
    "роман</w>": 7648,
    "роме</w>": 7649,
    "рон": 7650,
    "ронов</w>": 7651,
    "рори": 7652,
    "рос": 7653,
    "роско": 7654,
    "росл": 7655,
    "росси": 7656,
    "россией</w>": 7657,
    "россии</w>": 7658,
    "россий": 7659,
    "российская</w>": 7660,
    "российские</w>": 7661,
    "российский</w>": 7662,
    "российским</w>": 7663,
    "российскими</w>": 7664,
    "российских</w>": 7665,
    "российско</w>": 7666,
    "российского</w>": 7667,
    "российское</w>": 7668,
    "российской</w>": 7669,
    "российском</w>": 7670,
    "российскую</w>": 7671,
    "россию</w>": 7672,
    "россия": 7673,
    "россия</w>": 7674,
    "россиян": 7675,
    "россиян</w>": 7676,
    "россияне</w>": 7677,
    "рост": 7678,
    "рост</w>": 7679,
    "роста</w>": 7680,
    "ростов": 7681,
    "рт": 7682,
    "ру": 7683,
    "ру</w>": 7684,
    "руб": 7685,
    "рубеж": 7686,
    "рубежом</w>": 7687,
    "рубле": 7688,
    "рублей</w>": 7689,
    "рубля</w>": 7690,
    "руд": 7691,
    "руем</w>": 7692,
    "рует</w>": 7693,
    "руется</w>": 7694,
    "рук</w>": 7695,
    "руках</w>": 7696,
    "руки</w>": 7697,
    "руковод": 7698,
    "руководителей</w>": 7699,
    "руководители</w>": 7700,
    "руководитель</w>": 7701,
    "руководителя</w>": 7702,
    "руководства</w>": 7703,
    "руководство</w>": 7704,
    "руководством</w>": 7705,
    "руп": 7706,
    "рус": 7707,
    "русский</w>": 7708,
    "русского</w>": 7709,
    "русской</w>": 7710,
    "руч": 7711,
    "руш": 7712,
    "рую</w>": 7713,
    "руют</w>": 7714,
    "руются</w>": 7715,
    "руя</w>": 7716,
    "рф</w>": 7717,
    "ры": 7718,
    "ры</w>": 7719,
    "рыв": 7720,
    "рыв</w>": 7721,
    "рыва</w>": 7722,
    "рын": 7723,
    "рынка</w>": 7724,
    "рынке</w>": 7725,
    "рыно": 7726,
    "рынок</w>": 7727,
    "рь": 7728,
    "рэ": 7729,
    "рю": 7730,
    "ря": 7731,
    "ряд": 7732,
    "ряд</w>": 7733,
    "ряда</w>": 7734,
    "ряде</w>": 7735,
    "рядом</w>": 7736,
    "ряз": 7737,
    "ряс": 7738,
    "с": 7739,
    "с</w>": 7740,
    "са": 7741,
    "са</w>": 7742,
    "сав": 7743,
    "сад": 7744,
    "сад</w>": 7745,
    "сада</w>": 7746,
    "сажи": 7747,
    "сай": 7748,
    "сайт</w>": 7749,
    "сайта</w>": 7750,
    "сайте</w>": 7751,
    "сал": 7752,
    "сам": 7753,
    "сам</w>": 7754,
    "сама</w>": 7755,
    "самар": 7756,
    "самая</w>": 7757,
    "самбле": 7758,
    "сами": 7759,
    "сами</w>": 7760,
    "саммит": 7761,
    "саммита</w>": 7762,
    "само": 7763,
    "самого</w>": 7764,
    "самое</w>": 7765,
    "самой</w>": 7766,
    "самолет": 7767,
    "самолет</w>": 7768,
    "самолета</w>": 7769,
    "самолетов</w>": 7770,
    "самолеты</w>": 7771,
    "самом</w>": 7772,
    "самостоятель": 7773,
    "самостоятельно</w>": 7774,
    "самы": 7775,
    "самые</w>": 7776,
    "самый</w>": 7777,
    "самым</w>": 7778,
    "самых</w>": 7779,
    "сан": 7780,
    "сан</w>": 7781,
    "санд": 7782,
    "санк": 7783,
    "санкт</w>": 7784,
    "санкции</w>": 7785,
    "санкций</w>": 7786,
    "санкциони": 7787,
    "санти": 7788,
    "сар": 7789,
    "сарат": 7790,
    "сах</w>": 7791,
    "сахал": 7792,
    "сб": 7793,
    "сб</w>": 7794,
    "сбер": 7795,
    "сбор": 7796,
    "сбор</w>": 7797,
    "сборная</w>": 7798,
    "сборной</w>": 7799,
    "сборную</w>": 7800,
    "св": 7801,
    "све": 7802,
    "свед": 7803,
    "сведения</w>": 7804,
    "сведениям</w>": 7805,
    "свер": 7806,
    "свердлов": 7807,
    "сверх": 7808,
    "свет": 7809,
    "свет</w>": 7810,
    "света</w>": 7811,
    "светлана</w>": 7812,
    "сви": 7813,
    "свидет": 7814,
    "свидетель": 7815,
    "свидетельствуют</w>": 7816,
    "сво": 7817,
    "свобод": 7818,
    "свободу</w>": 7819,
    "свободы</w>": 7820,
    "свое</w>": 7821,
    "своего</w>": 7822,
    "своей</w>": 7823,
    "своем</w>": 7824,
    "своему</w>": 7825,
    "свои</w>": 7826,
    "своим</w>": 7827,
    "своими</w>": 7828,
    "своих</w>": 7829,
    "свой": 7830,
    "свой</w>": 7831,
    "свою</w>": 7832,
    "свыше</w>": 7833,
    "свя": 7834,
    "связ": 7835,
    "связанные</w>": 7836,
    "связанных</w>": 7837,
    "связано</w>": 7838,
    "связаны</w>": 7839,
    "связей</w>": 7840,
    "связи</w>": 7841,
    "связь</w>": 7842,
    "свят": 7843,
    "священ": 7844,
    "сда": 7845,
    "сдел": 7846,
    "сделал</w>": 7847,
    "сделали</w>": 7848,
    "сделано</w>": 7849,
    "сделать</w>": 7850,
    "сделки</w>": 7851,
    "се": 7852,
    "се</w>": 7853,
    "себе</w>": 7854,
    "себя</w>": 7855,
    "север": 7856,
    "севере</w>": 7857,
    "северной</w>": 7858,
    "северо": 7859,
    "северо</w>": 7860,
    "сег": 7861,
    "сегод": 7862,
    "сегодня</w>": 7863,
    "сегодняш": 7864,
    "сегодняшний</w>": 7865,
    "сед": 7866,
    "седь": 7867,
    "сез": 7868,
    "сезон</w>": 7869,
    "сезона</w>": 7870,
    "сезоне</w>": 7871,
    "сей": 7872,
    "сей</w>": 7873,
    "сейчас</w>": 7874,
    "сек": 7875,
    "секре": 7876,
    "секрет": 7877,
    "секретарь</w>": 7878,
    "секретаря</w>": 7879,
    "сексу": 7880,
    "сектора</w>": 7881,
    "секун": 7882,
    "секунд</w>": 7883,
    "секунду</w>": 7884,
    "секунды</w>": 7885,
    "сел": 7886,
    "села</w>": 7887,
    "селе</w>": 7888,
    "селенной</w>": 7889,
    "сель": 7890,
    "сем": 7891,
    "сем</w>": 7892,
    "семей": 7893,
    "семей</w>": 7894,
    "семи</w>": 7895,
    "семь": 7896,
    "семь</w>": 7897,
    "семье</w>": 7898,
    "семьи</w>": 7899,
    "семья</w>": 7900,
    "сен": 7901,
    "сен</w>": 7902,
    "сена": 7903,
    "сент": 7904,
    "сентябре</w>": 7905,
    "сентября</w>": 7906,
    "сер": 7907,
    "сер</w>": 7908,
    "серв": 7909,
    "сервер": 7910,
    "сервис": 7911,
    "сервис</w>": 7912,
    "сервиса</w>": 7913,
    "серге": 7914,
    "сергей</w>": 7915,
    "сергея</w>": 7916,
    "серд": 7917,
    "сере": 7918,
    "серебр": 7919,
    "серебря": 7920,
    "серед": 7921,
    "середине</w>": 7922,
    "сери": 7923,
    "серии</w>": 7924,
    "серь": 7925,
    "серьез": 7926,
    "серьезно</w>": 7927,
    "серьезные</w>": 7928,
    "сессии</w>": 7929,
    "сет": 7930,
    "сетей</w>": 7931,
    "сети</w>": 7932,
    "сеть</w>": 7933,
    "сетях</w>": 7934,
    "си": 7935,
    "си</w>": 7936,
    "сибир": 7937,
    "сив": 7938,
    "сигн": 7939,
    "сигнал</w>": 7940,
    "сид": 7941,
    "сии</w>": 7942,
    "сил": 7943,
    "сил</w>": 7944,
    "сила</w>": 7945,
    "силами</w>": 7946,
    "сили</w>": 7947,
    "сило</w>": 7948,
    "силови": 7949,
    "силу</w>": 7950,
    "силы</w>": 7951,
    "силь": 7952,
    "сильно</w>": 7953,
    "сим": 7954,
    "сим</w>": 7955,
    "симво": 7956,
    "син": 7957,
    "сино": 7958,
    "сири": 7959,
    "сирии</w>": 7960,
    "сист": 7961,
    "систе": 7962,
    "систем</w>": 7963,
    "система</w>": 7964,
    "системе</w>": 7965,
    "системой</w>": 7966,
    "систему</w>": 7967,
    "системы</w>": 7968,
    "сит": 7969,
    "сит</w>": 7970,
    "ситуа": 7971,
    "ситуации</w>": 7972,
    "ситуацию</w>": 7973,
    "ситуация</w>": 7974,
    "сить</w>": 7975,
    "сих</w>": 7976,
    "сия</w>": 7977,
    "ск": 7978,
    "ск</w>": 7979,
    "ска": 7980,
    "ска</w>": 7981,
    "скаж": 7982,
    "сказ": 7983,
    "сказал</w>": 7984,
    "сказала</w>": 7985,
    "сказать</w>": 7986,
    "сканд": 7987,
    "ская</w>": 7988,
    "ске</w>": 7989,
    "ски": 7990,
    "ски</w>": 7991,
    "ские</w>": 7992,
    "ский</w>": 7993,
    "ским</w>": 7994,
    "скими</w>": 7995,
    "ских</w>": 7996,
    "скла": 7997,
    "склад": 7998,
    "ско": 7999,
    "ско</w>": 8000,
    "сков</w>": 8001,
    "ского</w>": 8002,
    "ское</w>": 8003,
    "ской</w>": 8004,
    "сколь": 8005,
    "сколько</w>": 8006,
    "скольку</w>": 8007,
    "ском</w>": 8008,
    "скому</w>": 8009,
    "скон": 8010,
    "сконч": 8011,
    "скончался</w>": 8012,
    "скор": 8013,
    "скорб": 8014,
    "скоре</w>": 8015,
    "скорее</w>": 8016,
    "скоро": 8017,
    "скорой</w>": 8018,
    "скорост": 8019,
    "скорости</w>": 8020,
    "скорость</w>": 8021,
    "скри": 8022,
    "скрип": 8023,
    "скры": 8024,
    "ску</w>": 8025,
    "скуль": 8026,
    "скую</w>": 8027,
    "сл": 8028,
    "сла": 8029,
    "сла</w>": 8030,
    "слаб": 8031,
    "слав": 8032,
    "слав</w>": 8033,
    "слава</w>": 8034,
    "слам": 8035,
    "сле": 8036,
    "сле</w>": 8037,
    "след": 8038,
    "следить</w>": 8039,
    "следов": 8040,
    "следователи</w>": 8041,
    "следственного</w>": 8042,
    "следствие</w>": 8043,
    "следствия</w>": 8044,
    "следу": 8045,
    "следует</w>": 8046,
    "следующего</w>": 8047,
    "следующей</w>": 8048,
    "следующем</w>": 8049,
    "следующие</w>": 8050,
    "следующий</w>": 8051,
    "следующим</w>": 8052,
    "сли": 8053,
    "сли</w>": 8054,
    "слишком</w>": 8055,
    "сло": 8056,
    "сло</w>": 8057,
    "слов": 8058,
    "слов</w>": 8059,
    "слова</w>": 8060,
    "словам</w>": 8061,
    "слово</w>": 8062,
    "слож": 8063,
    "сложи": 8064,
    "сложно</w>": 8065,
    "сложности</w>": 8066,
    "сложных</w>": 8067,
    "слу": 8068,
    "служ": 8069,
    "служа": 8070,
    "служб</w>": 8071,
    "служба</w>": 8072,
    "службе</w>": 8073,
    "службу</w>": 8074,
    "службы</w>": 8075,
    "служеб": 8076,
    "случ": 8077,
    "случа": 8078,
    "случае</w>": 8079,
    "случаев</w>": 8080,
    "случаи</w>": 8081,
    "случай": 8082,
    "случай</w>": 8083,
    "случаях</w>": 8084,
    "слуш": 8085,
    "слушания</w>": 8086,
    "слыш": 8087,
    "сля": 8088,
    "см</w>": 8089,
    "смарт": 8090,
    "сматри": 8091,
    "сме": 8092,
    "смен": 8093,
    "смер": 8094,
    "смерт": 8095,
    "смерти</w>": 8096,
    "смерть</w>": 8097,
    "смеш": 8098,
    "сми</w>": 8099,
    "смо": 8100,
    "смог</w>": 8101,
    "смогли</w>": 8102,
    "смогут</w>": 8103,
    "сможет</w>": 8104,
    "смот": 8105,
    "смотр": 8106,
    "смотра</w>": 8107,
    "смотре": 8108,
    "смотрен": 8109,
    "смотреть</w>": 8110,
    "смотри": 8111,
    "смотрим</w>": 8112,
    "смотря</w>": 8113,
    "смы": 8114,
    "смысл": 8115,
    "смысл</w>": 8116,
    "сн": 8117,
    "снаб": 8118,
    "сначала</w>": 8119,
    "снг</w>": 8120,
    "сне": 8121,
    "сни": 8122,
    "сниж": 8123,
    "снижение</w>": 8124,
    "снижения</w>": 8125,
    "сниз": 8126,
    "снизился</w>": 8127,
    "снизить</w>": 8128,
    "сним": 8129,
    "сно": 8130,
    "сно</w>": 8131,
    "снова</w>": 8132,
    "сня": 8133,
    "со": 8134,
    "со</w>": 8135,
    "соб": 8136,
    "соба": 8137,
    "собе": 8138,
    "собесед": 8139,
    "собеседник</w>": 8140,
    "собеседница</w>": 8141,
    "собира": 8142,
    "собирается</w>": 8143,
    "соблюд": 8144,
    "собо": 8145,
    "собой</w>": 8146,
    "собра": 8147,
    "собрание</w>": 8148,
    "собрания</w>": 8149,
    "собрать</w>": 8150,
    "собствен": 8151,
    "собственной</w>": 8152,
    "собственности</w>": 8153,
    "собственные</w>": 8154,
    "собы": 8155,
    "событи": 8156,
    "событий</w>": 8157,
    "события</w>": 8158,
    "собянин</w>": 8159,
    "сов": 8160,
    "сов</w>": 8161,
    "сова</w>": 8162,
    "совер": 8163,
    "соверш": 8164,
    "совершен": 8165,
    "совершении</w>": 8166,
    "совершенно</w>": 8167,
    "совершенствов": 8168,
    "совершил</w>": 8169,
    "совет": 8170,
    "совет</w>": 8171,
    "совета</w>": 8172,
    "совете</w>": 8173,
    "советского</w>": 8174,
    "совещ": 8175,
    "совещание</w>": 8176,
    "совещании</w>": 8177,
    "совмест": 8178,
    "совместно</w>": 8179,
    "современ": 8180,
    "современного</w>": 8181,
    "современной</w>": 8182,
    "современных</w>": 8183,
    "совсем</w>": 8184,
    "согла": 8185,
    "соглас": 8186,
    "согласил": 8187,
    "согласно</w>": 8188,
    "согласов": 8189,
    "соглаш": 8190,
    "соглашение</w>": 8191,
    "соглашения</w>": 8192,
    "сод": 8193,
    "содей": 8194,
    "содер": 8195,
    "содерж": 8196,
    "содержа": 8197,
    "содержание</w>": 8198,
    "содержания</w>": 8199,
    "содержит</w>": 8200,
    "соедин": 8201,
    "сожал": 8202,
    "сожалению</w>": 8203,
    "соз": 8204,
    "созд": 8205,
    "созда": 8206,
    "создав": 8207,
    "создавать</w>": 8208,
    "создан": 8209,
    "создан</w>": 8210,
    "создана</w>": 8211,
    "создание</w>": 8212,
    "создании</w>": 8213,
    "созданию</w>": 8214,
    "создания</w>": 8215,
    "создать</w>": 8216,
    "созн": 8217,
    "сок</w>": 8218,
    "сократ": 8219,
    "сократить</w>": 8220,
    "сокращ": 8221,
    "сол": 8222,
    "солдат</w>": 8223,
    "соли": 8224,
    "солн": 8225,
    "солне": 8226,
    "солю": 8227,
    "сом": 8228,
    "сом</w>": 8229,
    "сомн": 8230,
    "сон</w>": 8231,
    "сона</w>": 8232,
    "сообщ": 8233,
    "сообщает</w>": 8234,
    "сообщается</w>": 8235,
    "сообщал</w>": 8236,
    "сообщалось</w>": 8237,
    "сообщают</w>": 8238,
    "сообще": 8239,
    "сообщение</w>": 8240,
    "сообщении</w>": 8241,
    "сообщений</w>": 8242,
    "сообщения</w>": 8243,
    "сообщества</w>": 8244,
    "сообщил</w>": 8245,
    "сообщила</w>": 8246,
    "сообщили</w>": 8247,
    "сообщило</w>": 8248,
    "соору": 8249,
    "соответ": 8250,
    "соответственно</w>": 8251,
    "соответствии</w>": 8252,
    "соответству": 8253,
    "соответствует</w>": 8254,
    "соответствующие</w>": 8255,
    "сопер": 8256,
    "сопрово": 8257,
    "сопровожд": 8258,
    "сопротив": 8259,
    "сор": 8260,
    "сорев": 8261,
    "соревнов": 8262,
    "соревнований</w>": 8263,
    "соревнования</w>": 8264,
    "сос": 8265,
    "сосед": 8266,
    "сосредо": 8267,
    "состав": 8268,
    "состав</w>": 8269,
    "состава</w>": 8270,
    "составе</w>": 8271,
    "составил</w>": 8272,
    "составила</w>": 8273,
    "составили</w>": 8274,
    "составит</w>": 8275,
    "составить</w>": 8276,
    "составля": 8277,
    "составляет</w>": 8278,
    "составляют</w>": 8279,
    "состо": 8280,
    "состоит</w>": 8281,
    "состоится</w>": 8282,
    "состоя": 8283,
    "состояв": 8284,
    "состоялась</w>": 8285,
    "состоялся</w>": 8286,
    "состояние</w>": 8287,
    "состоянии</w>": 8288,
    "состоянию</w>": 8289,
    "состояния</w>": 8290,
    "состоятся</w>": 8291,
    "сот": 8292,
    "сотни</w>": 8293,
    "сотруд": 8294,
    "сотрудник</w>": 8295,
    "сотрудника</w>": 8296,
    "сотрудниками</w>": 8297,
    "сотрудники</w>": 8298,
    "сотрудников</w>": 8299,
    "сотрудниче": 8300,
    "сотрудничества</w>": 8301,
    "сотрудничестве</w>": 8302,
    "сотрудничество</w>": 8303,
    "сохран": 8304,
    "сохранить</w>": 8305,
    "соц": 8306,
    "соци": 8307,
    "социаль": 8308,
    "социально</w>": 8309,
    "социального</w>": 8310,
    "социальной</w>": 8311,
    "социальных</w>": 8312,
    "сочет": 8313,
    "сочи</w>": 8314,
    "сою": 8315,
    "союз": 8316,
    "союз</w>": 8317,
    "союза</w>": 8318,
    "сп": 8319,
    "спа": 8320,
    "спас": 8321,
    "спасатели</w>": 8322,
    "спе": 8323,
    "спек": 8324,
    "спект": 8325,
    "спектак": 8326,
    "спец": 8327,
    "специ": 8328,
    "специали": 8329,
    "специализи": 8330,
    "специалист</w>": 8331,
    "специалистов</w>": 8332,
    "специалисты</w>": 8333,
    "специаль": 8334,
    "специально</w>": 8335,
    "специальный</w>": 8336,
    "специальных</w>": 8337,
    "спи": 8338,
    "спикер</w>": 8339,
    "списка</w>": 8340,
    "списке</w>": 8341,
    "список</w>": 8342,
    "спо": 8343,
    "споко": 8344,
    "спокой": 8345,
    "спор": 8346,
    "спорт": 8347,
    "спорт</w>": 8348,
    "спорта</w>": 8349,
    "спортив": 8350,
    "спортивных</w>": 8351,
    "спортсмен": 8352,
    "спортсменов</w>": 8353,
    "способ": 8354,
    "способ</w>": 8355,
    "способности</w>": 8356,
    "способность</w>": 8357,
    "справ": 8358,
    "справедли": 8359,
    "спро": 8360,
    "спрос</w>": 8361,
    "спустя</w>": 8362,
    "спут": 8363,
    "ср</w>": 8364,
    "срав": 8365,
    "сравн": 8366,
    "сравнению</w>": 8367,
    "сразу</w>": 8368,
    "сред": 8369,
    "среди</w>": 8370,
    "средне": 8371,
    "среднего</w>": 8372,
    "средней</w>": 8373,
    "среднем</w>": 8374,
    "средняя</w>": 8375,
    "средств</w>": 8376,
    "средства</w>": 8377,
    "среду</w>": 8378,
    "среды</w>": 8379,
    "сро": 8380,
    "срок</w>": 8381,
    "срока</w>": 8382,
    "сроки</w>": 8383,
    "сроком</w>": 8384,
    "сс": 8385,
    "сс</w>": 8386,
    "сса</w>": 8387,
    "ссе</w>": 8388,
    "сси": 8389,
    "ссив": 8390,
    "ссии</w>": 8391,
    "ссий</w>": 8392,
    "ссион": 8393,
    "ссию</w>": 8394,
    "ссия</w>": 8395,
    "ссо": 8396,
    "ссср</w>": 8397,
    "ссы": 8398,
    "ссы</w>": 8399,
    "ссыл": 8400,
    "ссылкой</w>": 8401,
    "ст": 8402,
    "ст</w>": 8403,
    "ста": 8404,
    "ста</w>": 8405,
    "стаб": 8406,
    "стабиль": 8407,
    "став": 8408,
    "став</w>": 8409,
    "ставка</w>": 8410,
    "ставки</w>": 8411,
    "стади": 8412,
    "стадии</w>": 8413,
    "стал": 8414,
    "стал</w>": 8415,
    "стала</w>": 8416,
    "стали</w>": 8417,
    "сталки": 8418,
    "стало</w>": 8419,
    "стам</w>": 8420,
    "стами</w>": 8421,
    "стан": 8422,
    "стан</w>": 8423,
    "стана</w>": 8424,
    "станавли": 8425,
    "стандар": 8426,
    "стандарт": 8427,
    "стане</w>": 8428,
    "станет</w>": 8429,
    "стани": 8430,
    "станов": 8431,
    "становится</w>": 8432,
    "станут</w>": 8433,
    "станции</w>": 8434,
    "станций</w>": 8435,
    "станция</w>": 8436,
    "стар": 8437,
    "стара": 8438,
    "старо": 8439,
    "стартов": 8440,
    "старший</w>": 8441,
    "стат": 8442,
    "стати": 8443,
    "стати</w>": 8444,
    "статисти": 8445,
    "стату": 8446,
    "статус</w>": 8447,
    "стать": 8448,
    "стать</w>": 8449,
    "статье</w>": 8450,
    "статьи</w>": 8451,
    "статью</w>": 8452,
    "статья</w>": 8453,
    "ств": 8454,
    "ств</w>": 8455,
    "ства</w>": 8456,
    "ствам</w>": 8457,
    "ствами</w>": 8458,
    "ствах</w>": 8459,
    "стве</w>": 8460,
    "ствен": 8461,
    "ственная</w>": 8462,
    "ственно</w>": 8463,
    "ственного</w>": 8464,
    "ственное</w>": 8465,
    "ственной</w>": 8466,
    "ственном</w>": 8467,
    "ственную</w>": 8468,
    "ственные</w>": 8469,
    "ственный</w>": 8470,
    "ственным</w>": 8471,
    "ственными</w>": 8472,
    "ственных</w>": 8473,
    "стви": 8474,
    "ствие</w>": 8475,
    "ствием</w>": 8476,
    "ствии</w>": 8477,
    "ствий</w>": 8478,
    "ствию</w>": 8479,
    "ствия</w>": 8480,
    "ство</w>": 8481,
    "ствов": 8482,
    "ствовал</w>": 8483,
    "ствовали</w>": 8484,
    "ствовать</w>": 8485,
    "ством</w>": 8486,
    "ству": 8487,
    "ству</w>": 8488,
    "ствует</w>": 8489,
    "ствуют</w>": 8490,
    "сте": 8491,
    "сте</w>": 8492,
    "стей</w>": 8493,
    "стек": 8494,
    "стен": 8495,
    "степен": 8496,
    "степени</w>": 8497,
    "стер": 8498,
    "стер</w>": 8499,
    "сти": 8500,
    "сти</w>": 8501,
    "стики</w>": 8502,
    "стил": 8503,
    "стиму": 8504,
    "стимули": 8505,
    "стин": 8506,
    "стит": 8507,
    "ститу": 8508,
    "стических</w>": 8509,
    "стической</w>": 8510,
    "стка</w>": 8511,
    "сто": 8512,
    "сто</w>": 8513,
    "стов": 8514,
    "стов</w>": 8515,
    "стовер": 8516,
    "стого</w>": 8517,
    "стоимо": 8518,
    "стоимости</w>": 8519,
    "стоимость</w>": 8520,
    "стоимостью</w>": 8521,
    "стоит</w>": 8522,
    "стой": 8523,
    "стой</w>": 8524,
    "стойчи": 8525,
    "сток</w>": 8526,
    "стол": 8527,
    "стол</w>": 8528,
    "столиц": 8529,
    "столице</w>": 8530,
    "столицы</w>": 8531,
    "столич": 8532,
    "столичного</w>": 8533,
    "столкнов": 8534,
    "столкновения</w>": 8535,
    "столкну": 8536,
    "столь</w>": 8537,
    "столько</w>": 8538,
    "стом</w>": 8539,
    "сторо": 8540,
    "сторон": 8541,
    "сторон</w>": 8542,
    "сторона</w>": 8543,
    "стороне</w>": 8544,
    "сторонников</w>": 8545,
    "сторону</w>": 8546,
    "стороны</w>": 8547,
    "стоя": 8548,
    "стоян": 8549,
    "стоят</w>": 8550,
    "стоятель": 8551,
    "стр</w>": 8552,
    "стра": 8553,
    "стра</w>": 8554,
    "страи": 8555,
    "страли": 8556,
    "стран": 8557,
    "стран</w>": 8558,
    "страна</w>": 8559,
    "странами</w>": 8560,
    "странах</w>": 8561,
    "стране</w>": 8562,
    "странице</w>": 8563,
    "страну</w>": 8564,
    "страны</w>": 8565,
    "страте": 8566,
    "стратеги": 8567,
    "стратегии</w>": 8568,
    "страх": 8569,
    "страхов": 8570,
    "страш": 8571,
    "стре": 8572,
    "стреб": 8573,
    "стрее</w>": 8574,
    "стрел": 8575,
    "стрель": 8576,
    "стрем": 8577,
    "стри": 8578,
    "стрии</w>": 8579,
    "стро": 8580,
    "строго</w>": 8581,
    "строитель": 8582,
    "строительной</w>": 8583,
    "строительства</w>": 8584,
    "строительстве</w>": 8585,
    "строительство</w>": 8586,
    "строительству</w>": 8587,
    "строить</w>": 8588,
    "строй": 8589,
    "строй</w>": 8590,
    "стройки</w>": 8591,
    "стром</w>": 8592,
    "стру": 8593,
    "структ": 8594,
    "структу": 8595,
    "структур": 8596,
    "структур</w>": 8597,
    "структура</w>": 8598,
    "структури": 8599,
    "структуру</w>": 8600,
    "структуры</w>": 8601,
    "стся</w>": 8602,
    "сту": 8603,
    "сту</w>": 8604,
    "студ": 8605,
    "студен": 8606,
    "студентов</w>": 8607,
    "студии</w>": 8608,
    "ступ": 8609,
    "ступа": 8610,
    "ступи": 8611,
    "ступит</w>": 8612,
    "ступл": 8613,
    "стую</w>": 8614,
    "сты": 8615,
    "сты</w>": 8616,
    "сть</w>": 8617,
    "стью</w>": 8618,
    "су": 8619,
    "су</w>": 8620,
    "суб": 8621,
    "суббот": 8622,
    "субботу</w>": 8623,
    "субси": 8624,
    "субъ": 8625,
    "субъект": 8626,
    "субъектов</w>": 8627,
    "суд": 8628,
    "суд</w>": 8629,
    "суда</w>": 8630,
    "суде</w>": 8631,
    "судеб": 8632,
    "судна</w>": 8633,
    "судно</w>": 8634,
    "судов</w>": 8635,
    "судом</w>": 8636,
    "судь": 8637,
    "судья</w>": 8638,
    "сужд": 8639,
    "суждения</w>": 8640,
    "суль": 8641,
    "сум": 8642,
    "сумма</w>": 8643,
    "сумму</w>": 8644,
    "суммы</w>": 8645,
    "сун": 8646,
    "супер": 8647,
    "супру": 8648,
    "сур": 8649,
    "сут": 8650,
    "сути</w>": 8651,
    "сутки</w>": 8652,
    "суток</w>": 8653,
    "сухо": 8654,
    "суще": 8655,
    "существенно</w>": 8656,
    "существов": 8657,
    "существу": 8658,
    "существует</w>": 8659,
    "существуют</w>": 8660,
    "сф": 8661,
    "сфер": 8662,
    "сфере</w>": 8663,
    "сферы</w>": 8664,
    "сформи": 8665,
    "сх": 8666,
    "схе": 8667,
    "сход": 8668,
    "сцен": 8669,
    "сценари": 8670,
    "сцене</w>": 8671,
    "счаст": 8672,
    "счет": 8673,
    "счет</w>": 8674,
    "счета</w>": 8675,
    "счетом</w>": 8676,
    "счету</w>": 8677,
    "счит": 8678,
    "считает</w>": 8679,
    "считается</w>": 8680,
    "считать</w>": 8681,
    "считаю</w>": 8682,
    "считают</w>": 8683,
    "сш": 8684,
    "сша</w>": 8685,
    "съ": 8686,
    "съем": 8687,
    "сы": 8688,
    "сы</w>": 8689,
    "сыгра": 8690,
    "сыл": 8691,
    "сын</w>": 8692,
    "сына</w>": 8693,
    "сь</w>": 8694,
    "сю": 8695,
    "сюда</w>": 8696,
    "сюж": 8697,
    "ся": 8698,
    "ся</w>": 8699,
    "сят</w>": 8700,
    "т": 8701,
    "т</w>": 8702,
    "та": 8703,
    "та</w>": 8704,
    "таба": 8705,
    "табли": 8706,
    "таил": 8707,
    "тай": 8708,
    "так": 8709,
    "так</w>": 8710,
    "такая</w>": 8711,
    "также</w>": 8712,
    "таки</w>": 8713,
    "такие</w>": 8714,
    "таким</w>": 8715,
    "такими</w>": 8716,
    "таких</w>": 8717,
    "такого</w>": 8718,
    "такое</w>": 8719,
    "такой</w>": 8720,
    "таком</w>": 8721,
    "такую</w>": 8722,
    "тал": 8723,
    "тали": 8724,
    "там</w>": 8725,
    "тами</w>": 8726,
    "тамож": 8727,
    "тан": 8728,
    "тар": 8729,
    "тари": 8730,
    "тат": 8731,
    "тат</w>": 8732,
    "татар": 8733,
    "татом</w>": 8734,
    "татьяна</w>": 8735,
    "тах</w>": 8736,
    "тации</w>": 8737,
    "тацию</w>": 8738,
    "тация</w>": 8739,
    "тая</w>": 8740,
    "твер": 8741,
    "тво": 8742,
    "твор": 8743,
    "те": 8744,
    "те</w>": 8745,
    "теат": 8746,
    "театр</w>": 8747,
    "театра</w>": 8748,
    "театраль": 8749,
    "театре</w>": 8750,
    "тебя</w>": 8751,
    "тед</w>": 8752,
    "тей": 8753,
    "тек": 8754,
    "текст": 8755,
    "текст</w>": 8756,
    "текста</w>": 8757,
    "тексте</w>": 8758,
    "теку": 8759,
    "текущего</w>": 8760,
    "текущем</w>": 8761,
    "тел": 8762,
    "тел</w>": 8763,
    "тела</w>": 8764,
    "теле": 8765,
    "телев": 8766,
    "телевид": 8767,
    "телек": 8768,
    "телекан": 8769,
    "телеканал": 8770,
    "телеканал</w>": 8771,
    "телеканала</w>": 8772,
    "телефон": 8773,
    "телефон</w>": 8774,
    "телефону</w>": 8775,
    "тело</w>": 8776,
    "тем": 8777,
    "тем</w>": 8778,
    "тема</w>": 8779,
    "темп": 8780,
    "темпе": 8781,
    "температур": 8782,
    "температура</w>": 8783,
    "тему</w>": 8784,
    "темы</w>": 8785,
    "тен": 8786,
    "тенден": 8787,
    "тенни": 8788,
    "тео": 8789,
    "теоре": 8790,
    "теории</w>": 8791,
    "теперь</w>": 8792,
    "тепл": 8793,
    "тепло": 8794,
    "тер": 8795,
    "тер</w>": 8796,
    "тера": 8797,
    "тера</w>": 8798,
    "теракт": 8799,
    "теракта</w>": 8800,
    "терактов</w>": 8801,
    "термин": 8802,
    "терна": 8803,
    "теров</w>": 8804,
    "террито": 8805,
    "территори": 8806,
    "территории</w>": 8807,
    "территорий</w>": 8808,
    "территорию</w>": 8809,
    "террори": 8810,
    "террористической</w>": 8811,
    "террористов</w>": 8812,
    "тести": 8813,
    "тесь</w>": 8814,
    "тех": 8815,
    "тех</w>": 8816,
    "техники</w>": 8817,
    "техниче": 8818,
    "технических</w>": 8819,
    "технического</w>": 8820,
    "технологи": 8821,
    "технологии</w>": 8822,
    "технологий</w>": 8823,
    "течение</w>": 8824,
    "ти": 8825,
    "ти</w>": 8826,
    "тив": 8827,
    "тив</w>": 8828,
    "тива</w>": 8829,
    "тие</w>": 8830,
    "тием</w>": 8831,
    "тии</w>": 8832,
    "тий</w>": 8833,
    "тики</w>": 8834,
    "тимо": 8835,
    "тимошенко</w>": 8836,
    "тин": 8837,
    "тин</w>": 8838,
    "тина</w>": 8839,
    "тины</w>": 8840,
    "тип</w>": 8841,
    "типа</w>": 8842,
    "тиров": 8843,
    "тировал</w>": 8844,
    "тировать</w>": 8845,
    "тиру": 8846,
    "тируя</w>": 8847,
    "титу": 8848,
    "тихо": 8849,
    "тиче": 8850,
    "тическая</w>": 8851,
    "тически</w>": 8852,
    "тические</w>": 8853,
    "тический</w>": 8854,
    "тических</w>": 8855,
    "тического</w>": 8856,
    "тической</w>": 8857,
    "тию</w>": 8858,
    "тия</w>": 8859,
    "тно</w>": 8860,
    "тных</w>": 8861,
    "то": 8862,
    "то</w>": 8863,
    "тов": 8864,
    "тов</w>": 8865,
    "товари": 8866,
    "товаров</w>": 8867,
    "товой</w>": 8868,
    "тогда</w>": 8869,
    "того</w>": 8870,
    "тое</w>": 8871,
    "тоже</w>": 8872,
    "той</w>": 8873,
    "ток": 8874,
    "ток</w>": 8875,
    "тол": 8876,
    "толо": 8877,
    "только</w>": 8878,
    "том": 8879,
    "том</w>": 8880,
    "томск</w>": 8881,
    "томской</w>": 8882,
    "тому</w>": 8883,
    "тон": 8884,
    "тон</w>": 8885,
    "тона</w>": 8886,
    "тоне</w>": 8887,
    "тонн</w>": 8888,
    "топ</w>": 8889,
    "топли": 8890,
    "топлива</w>": 8891,
    "тор": 8892,
    "тор</w>": 8893,
    "тора</w>": 8894,
    "торами</w>": 8895,
    "торги</w>": 8896,
    "торгов": 8897,
    "торгов</w>": 8898,
    "торговли</w>": 8899,
    "торговых</w>": 8900,
    "торе</w>": 8901,
    "торже": 8902,
    "тори": 8903,
    "тории</w>": 8904,
    "тория</w>": 8905,
    "торов</w>": 8906,
    "тором</w>": 8907,
    "тору</w>": 8908,
    "торы": 8909,
    "торы</w>": 8910,
    "тот</w>": 8911,
    "точ": 8912,
    "точек</w>": 8913,
    "точки</w>": 8914,
    "точку</w>": 8915,
    "точно</w>": 8916,
    "тр": 8917,
    "тра": 8918,
    "тра</w>": 8919,
    "трав": 8920,
    "травмы</w>": 8921,
    "трагеди": 8922,
    "тради": 8923,
    "традиционно</w>": 8924,
    "тран": 8925,
    "транс": 8926,
    "трансля": 8927,
    "транспор": 8928,
    "транспорт": 8929,
    "транспорта</w>": 8930,
    "транспортной</w>": 8931,
    "транспортных</w>": 8932,
    "трас": 8933,
    "тре": 8934,
    "треб": 8935,
    "требов": 8936,
    "требованием</w>": 8937,
    "требований</w>": 8938,
    "требования</w>": 8939,
    "требу": 8940,
    "требует</w>": 8941,
    "требуется</w>": 8942,
    "требуют</w>": 8943,
    "трево": 8944,
    "трей": 8945,
    "трен": 8946,
    "тренер</w>": 8947,
    "тренера</w>": 8948,
    "трени": 8949,
    "трениров": 8950,
    "трет": 8951,
    "третий</w>": 8952,
    "треть": 8953,
    "третье</w>": 8954,
    "третьего</w>": 8955,
    "третьей</w>": 8956,
    "третьем</w>": 8957,
    "трех": 8958,
    "трех</w>": 8959,
    "три": 8960,
    "три</w>": 8961,
    "трилли": 8962,
    "триллиона</w>": 8963,
    "тро": 8964,
    "трое</w>": 8965,
    "трой": 8966,
    "тру": 8967,
    "труд": 8968,
    "труда</w>": 8969,
    "трудно</w>": 8970,
    "тс</w>": 8971,
    "тся</w>": 8972,
    "ту": 8973,
    "ту</w>": 8974,
    "туда</w>": 8975,
    "тур": 8976,
    "тур</w>": 8977,
    "тура</w>": 8978,
    "туре</w>": 8979,
    "турец": 8980,
    "тури": 8981,
    "туризма</w>": 8982,
    "туристи": 8983,
    "туристов</w>": 8984,
    "турни": 8985,
    "турнир</w>": 8986,
    "турнира</w>": 8987,
    "турнире</w>": 8988,
    "туро": 8989,
    "туропера": 8990,
    "турции</w>": 8991,
    "тут</w>": 8992,
    "тщ": 8993,
    "ты": 8994,
    "ты</w>": 8995,
    "тые</w>": 8996,
    "тый</w>": 8997,
    "тыся": 8998,
    "тысяч</w>": 8999,
    "тысячи</w>": 9000,
    "тысячу</w>": 9001,
    "тых</w>": 9002,
    "ть": 9003,
    "ть</w>": 9004,
    "ться</w>": 9005,
    "тю": 9006,
    "тюмен": 9007,
    "тюрь": 9008,
    "тюрьмы</w>": 9009,
    "тя": 9010,
    "тяж": 9011,
    "тяжел": 9012,
    "у": 9013,
    "у</w>": 9014,
    "уб": 9015,
    "убе": 9016,
    "убед": 9017,
    "убежд": 9018,
    "уби": 9019,
    "убий": 9020,
    "убийства</w>": 9021,
    "убийстве</w>": 9022,
    "убийство</w>": 9023,
    "убит": 9024,
    "убы": 9025,
    "ув": 9026,
    "уведом": 9027,
    "увели": 9028,
    "увелич": 9029,
    "увеличение</w>": 9030,
    "увеличения</w>": 9031,
    "увеличи": 9032,
    "увеличить</w>": 9033,
    "увер": 9034,
    "уверен</w>": 9035,
    "уви": 9036,
    "увидеть</w>": 9037,
    "уво": 9038,
    "уволь": 9039,
    "уг": 9040,
    "угле": 9041,
    "уголов": 9042,
    "уголовного</w>": 9043,
    "уголовное</w>": 9044,
    "уголь": 9045,
    "угро": 9046,
    "угрож": 9047,
    "угрозы</w>": 9048,
    "уд": 9049,
    "уда": 9050,
    "уда</w>": 9051,
    "удал": 9052,
    "удалось</w>": 9053,
    "удар": 9054,
    "удар</w>": 9055,
    "удастся</w>": 9056,
    "удел": 9057,
    "удер": 9058,
    "удив": 9059,
    "удоб": 9060,
    "удов": 9061,
    "удовлет": 9062,
    "удовлетво": 9063,
    "удовлетвор": 9064,
    "ует</w>": 9065,
    "уж": 9066,
    "уж</w>": 9067,
    "уже</w>": 9068,
    "ужесто": 9069,
    "уз": 9070,
    "узбе": 9071,
    "узнать</w>": 9072,
    "ук": 9073,
    "ук</w>": 9074,
    "указ": 9075,
    "укра": 9076,
    "украин": 9077,
    "украина</w>": 9078,
    "украине</w>": 9079,
    "украинские</w>": 9080,
    "украинский</w>": 9081,
    "украинских</w>": 9082,
    "украинского</w>": 9083,
    "украинской</w>": 9084,
    "украины</w>": 9085,
    "укрепл": 9086,
    "ул": 9087,
    "ул</w>": 9088,
    "ули</w>": 9089,
    "улиц": 9090,
    "улице</w>": 9091,
    "улицы</w>": 9092,
    "улич": 9093,
    "улуч": 9094,
    "улучш": 9095,
    "уль": 9096,
    "ум": 9097,
    "ум</w>": 9098,
    "ума</w>": 9099,
    "уме": 9100,
    "умень": 9101,
    "уменьш": 9102,
    "умер": 9103,
    "ун": 9104,
    "ун</w>": 9105,
    "ународ": 9106,
    "уне</w>": 9107,
    "уни": 9108,
    "универ": 9109,
    "универс": 9110,
    "университ": 9111,
    "университета</w>": 9112,
    "уник": 9113,
    "уничто": 9114,
    "уп": 9115,
    "упа": 9116,
    "упал</w>": 9117,
    "упо": 9118,
    "уполномо": 9119,
    "упомя": 9120,
    "употреб": 9121,
    "управ": 9122,
    "управление</w>": 9123,
    "управлением</w>": 9124,
    "управлении</w>": 9125,
    "управления</w>": 9126,
    "управля": 9127,
    "ур": 9128,
    "ур</w>": 9129,
    "ура": 9130,
    "ура</w>": 9131,
    "урав": 9132,
    "уре</w>": 9133,
    "урегули": 9134,
    "уро": 9135,
    "уров": 9136,
    "уровень</w>": 9137,
    "уровне</w>": 9138,
    "уровня</w>": 9139,
    "урой</w>": 9140,
    "уру</w>": 9141,
    "уры</w>": 9142,
    "ус": 9143,
    "ус</w>": 9144,
    "уса</w>": 9145,
    "усил": 9146,
    "усилия</w>": 9147,
    "уско": 9148,
    "услов": 9149,
    "услови": 9150,
    "условий</w>": 9151,
    "условия</w>": 9152,
    "условиях</w>": 9153,
    "условно</w>": 9154,
    "услу": 9155,
    "услуг</w>": 9156,
    "услуги</w>": 9157,
    "усматри": 9158,
    "усп": 9159,
    "успе": 9160,
    "успеш": 9161,
    "успешно</w>": 9162,
    "устав": 9163,
    "устанавли": 9164,
    "установ": 9165,
    "установили</w>": 9166,
    "установить</w>": 9167,
    "установки</w>": 9168,
    "установлено</w>": 9169,
    "установлены</w>": 9170,
    "устойчи": 9171,
    "устран": 9172,
    "устро": 9173,
    "устрой": 9174,
    "устройств</w>": 9175,
    "устройства</w>": 9176,
    "устройство</w>": 9177,
    "уступ": 9178,
    "усы": 9179,
    "ут": 9180,
    "ут</w>": 9181,
    "утверд": 9182,
    "утвержд": 9183,
    "утверждает</w>": 9184,
    "утверждают</w>": 9185,
    "уте": 9186,
    "уточ": 9187,
    "уточн": 9188,
    "уточнил</w>": 9189,
    "уточня": 9190,
    "уточняет</w>": 9191,
    "уточняется</w>": 9192,
    "утра</w>": 9193,
    "утром</w>": 9194,
    "утся</w>": 9195,
    "уть</w>": 9196,
    "уход": 9197,
    "ухуд": 9198,
    "уч": 9199,
    "уча": 9200,
    "участ": 9201,
    "участвовали</w>": 9202,
    "участвовать</w>": 9203,
    "участвуют</w>": 9204,
    "участи": 9205,
    "участие</w>": 9206,
    "участием</w>": 9207,
    "участии</w>": 9208,
    "участия</w>": 9209,
    "участка</w>": 9210,
    "участке</w>": 9211,
    "участки</w>": 9212,
    "участков</w>": 9213,
    "участниками</w>": 9214,
    "участники</w>": 9215,
    "участников</w>": 9216,
    "участок</w>": 9217,
    "уче": 9218,
    "учеб": 9219,
    "учен": 9220,
    "учени": 9221,
    "ученые</w>": 9222,
    "ученых</w>": 9223,
    "учетом</w>": 9224,
    "учит": 9225,
    "учрежд": 9226,
    "учреждений</w>": 9227,
    "учреждения</w>": 9228,
    "учё": 9229,
    "уш": 9230,
    "ущ": 9231,
    "ущер": 9232,
    "ущерб</w>": 9233,
    "ущерба</w>": 9234,
    "уэ": 9235,
    "ую</w>": 9236,
    "уюся</w>": 9237,
    "ф": 9238,
    "ф</w>": 9239,
    "фа": 9240,
    "фа</w>": 9241,
    "фаз": 9242,
    "фай": 9243,
    "фак": 9244,
    "факт": 9245,
    "факт</w>": 9246,
    "фактически</w>": 9247,
    "факту</w>": 9248,
    "фаль": 9249,
    "фан": 9250,
    "фанта": 9251,
    "фар": 9252,
    "фе": 9253,
    "фе</w>": 9254,
    "фев</w>": 9255,
    "февра": 9256,
    "феврале</w>": 9257,
    "февраля</w>": 9258,
    "фед": 9259,
    "федера": 9260,
    "федераль": 9261,
    "федерального</w>": 9262,
    "федеральной</w>": 9263,
    "федеральном</w>": 9264,
    "федеральный</w>": 9265,
    "федеральных</w>": 9266,
    "федерации</w>": 9267,
    "фей": 9268,
    "фект": 9269,
    "фер": 9270,
    "ферен": 9271,
    "фести": 9272,
    "фестивал": 9273,
    "фестиваль</w>": 9274,
    "фестиваля</w>": 9275,
    "фи": 9276,
    "фи</w>": 9277,
    "фиг": 9278,
    "фигу": 9279,
    "фигуран": 9280,
    "фигури": 9281,
    "физи": 9282,
    "физики</w>": 9283,
    "физической</w>": 9284,
    "фика": 9285,
    "фикации</w>": 9286,
    "фикси": 9287,
    "фил": 9288,
    "фили": 9289,
    "фило": 9290,
    "филосо": 9291,
    "филь": 9292,
    "фильм</w>": 9293,
    "фильма</w>": 9294,
    "фильме</w>": 9295,
    "фильмов</w>": 9296,
    "фин": 9297,
    "фина</w>": 9298,
    "финал</w>": 9299,
    "финала</w>": 9300,
    "финале</w>": 9301,
    "финан": 9302,
    "финанс": 9303,
    "финанси": 9304,
    "финансирование</w>": 9305,
    "финансирования</w>": 9306,
    "финансов": 9307,
    "финансов</w>": 9308,
    "финансового</w>": 9309,
    "финансовой</w>": 9310,
    "финансовые</w>": 9311,
    "финансовых</w>": 9312,
    "фир": 9313,
    "фирмы</w>": 9314,
    "фиц": 9315,
    "фици": 9316,
    "фла": 9317,
    "фло": 9318,
    "флот": 9319,
    "флота</w>": 9320,
    "фо": 9321,
    "фов</w>": 9322,
    "фон": 9323,
    "фон</w>": 9324,
    "фона</w>": 9325,
    "фонд</w>": 9326,
    "фонда</w>": 9327,
    "фондов": 9328,
    "фоне</w>": 9329,
    "фонов</w>": 9330,
    "фор": 9331,
    "форвар": 9332,
    "форм": 9333,
    "форм</w>": 9334,
    "форма": 9335,
    "форма</w>": 9336,
    "формат": 9337,
    "формате</w>": 9338,
    "форме</w>": 9339,
    "форми": 9340,
    "формиров": 9341,
    "формирования</w>": 9342,
    "форму": 9343,
    "форму</w>": 9344,
    "формули": 9345,
    "формы</w>": 9346,
    "фору": 9347,
    "форум</w>": 9348,
    "форума</w>": 9349,
    "фото": 9350,
    "фото</w>": 9351,
    "фотографи": 9352,
    "фотографии</w>": 9353,
    "фра": 9354,
    "фраг": 9355,
    "фрак": 9356,
    "фракции</w>": 9357,
    "фран": 9358,
    "франц": 9359,
    "франции</w>": 9360,
    "франция</w>": 9361,
    "француз": 9362,
    "фрон": 9363,
    "фу": 9364,
    "фун": 9365,
    "фунда": 9366,
    "фундамент": 9367,
    "функ": 9368,
    "функции</w>": 9369,
    "функций</w>": 9370,
    "функцион": 9371,
    "функциони": 9372,
    "функцию</w>": 9373,
    "функция</w>": 9374,
    "фунтов</w>": 9375,
    "фут": 9376,
    "футбо": 9377,
    "футболи": 9378,
    "футболу</w>": 9379,
    "футболь": 9380,
    "футбольного</w>": 9381,
    "фф": 9382,
    "фы</w>": 9383,
    "х": 9384,
    "х</w>": 9385,
    "ха": 9386,
    "ха</w>": 9387,
    "хабар": 9388,
    "хабаров": 9389,
    "хай": 9390,
    "хал": 9391,
    "хам": 9392,
    "хан": 9393,
    "хар": 9394,
    "характ": 9395,
    "характер": 9396,
    "характер</w>": 9397,
    "характера</w>": 9398,
    "характери": 9399,
    "хач": 9400,
    "хват": 9401,
    "хватает</w>": 9402,
    "хе</w>": 9403,
    "хен": 9404,
    "хи": 9405,
    "хи</w>": 9406,
    "хии</w>": 9407,
    "хим": 9408,
    "химиче": 9409,
    "хин</w>": 9410,
    "хит": 9411,
    "хищ": 9412,
    "хл</w>": 9413,
    "хо": 9414,
    "хо</w>": 9415,
    "хов": 9416,
    "хов</w>": 9417,
    "хова</w>": 9418,
    "ход": 9419,
    "ход</w>": 9420,
    "хода</w>": 9421,
    "ходатай": 9422,
    "ходе</w>": 9423,
    "ходит</w>": 9424,
    "ходов</w>": 9425,
    "хождение</w>": 9426,
    "хождения</w>": 9427,
    "хоз": 9428,
    "хозя": 9429,
    "хозяй": 9430,
    "хозяйства</w>": 9431,
    "хок": 9432,
    "хокке": 9433,
    "хоккеи": 9434,
    "хоккей": 9435,
    "хол": 9436,
    "холдин": 9437,
    "холдинга</w>": 9438,
    "холод": 9439,
    "хом</w>": 9440,
    "хор": 9441,
    "хоро": 9442,
[...]
